, 142706
. 105924
die 43353
und 40554
der 31806
ist 26402
es 25794
in 24870
das 23063
zu 22643
k@@ 22531
en 21951
er@@ 21192
den 20665
ich 19451
ten 19268
wir 19209
t@@ 19175
er 19049
t 17652
ein 16811
f@@ 16312
te 16077
Sie 15918
an@@ 15882
S@@ 15593
sie 15366
z@@ 15336
eine 15122
&quot; 14961
K@@ 14936
s@@ 14814
von 14365
M@@ 14292
l@@ 14277
dass 14102
en@@ 13821
D@@ 13744
b@@ 13580
nicht 13580
m@@ 13519
sch@@ 13499
g@@ 13011
B@@ 12949
ver@@ 12916
Und 12476
F@@ 12271
st@@ 11579
g 11420
ch@@ 11288
d@@ 11225
H@@ 11160
auf 11084
: 11033
gen 10997
mit 10951
r@@ 10910
um 10484
h@@ 10475
W@@ 10261
be@@ 10051
n@@ 9997
wie 9944
T@@ 9921
Ich 9901
s 9873
an 9715
ti@@ 9621
e 9596
e@@ 9555
u@@ 9537
L@@ 9523
o@@ 9509
sich 9374
G@@ 9282
ä@@ 9105
sind 8917
-@@ 8890
? 8738
ge@@ 8731
für 8703
in@@ 8671
haben 8595
w@@ 8589
ung 8587
a@@ 8577
P@@ 8559
lich 8556
ein@@ 8493
als 8098
dem 8077
i@@ 7969
ge 7914
einen 7856
au@@ 7766
man 7573
cht 7499
m 7424
war 7374
al@@ 7374
R@@ 7354
el@@ 7316
chen 7159
gen@@ 7154
un@@ 7068
Das 7057
so 7044
Sch@@ 7042
ü@@ 6970
N@@ 6955
ar@@ 6797
aus 6779
Es 6656
re@@ 6630
A@@ 6629
p@@ 6572
es@@ 6567
was 6463
ri@@ 6440
diese 6274
ei@@ 6254
a 6233
des 6197
is@@ 6174
li@@ 6155
im 6136
ent@@ 6121
le@@ 6078
de 6061
rei@@ 6057
Wir 5975
E@@ 5975
di@@ 5960
at@@ 5825
ter 5802
Ver@@ 5767
wenn 5751
ö@@ 5710
or@@ 5699
che 5677
einem 5652
uns 5625
ab@@ 5607
l 5500
einer 5482
ben 5430
ch 5370
sp@@ 5355
zu@@ 5283
können 5261
ie 5161
werden 5141
Z@@ 5125
ges@@ 5122
zi@@ 5121
über 5038
ungen 5003
oder 4989
ra@@ 4969
V@@ 4932
n 4888
hat 4872
An@@ 4837
auch 4828
st 4826
aus@@ 4801
am@@ 4767
sen 4730
aber 4681
em@@ 4620
än@@ 4559
it@@ 4553
kl@@ 4538
Die 4512
si@@ 4509
as@@ 4468
et@@ 4460
O@@ 4446
kann 4412
eh@@ 4395
Aber 4359
Er@@ 4330
k 4295
men 4280
J@@ 4236
C@@ 4225
il@@ 4225
ut@@ 4201
wird 4160
ft 4055
nur 4042
ig@@ 4031
sehr 4021
le 4013
eren 4002
ol@@ 4002
on@@ 3958
wei@@ 3929
-- 3912
ro@@ 3894
St@@ 3879
Menschen 3875
nen 3850
– 3815
auf@@ 3805
gibt 3795
sein 3793
hier 3781
der@@ 3754
mich 3710
sehen 3709
and 3683
zen 3675
gt 3658
bes@@ 3657
lie@@ 3656
ur@@ 3624
um@@ 3612
dann 3592
also 3553
and@@ 3548
Be@@ 3535
vor 3532
ß@@ 3517
je@@ 3475
In@@ 3468
sten 3430
noch 3408
y@@ 3407
os@@ 3402
ter@@ 3399
I@@ 3380
lan@@ 3377
ot@@ 3355
tr@@ 3327
ern 3313
se 3296
etwas 3293
Ge@@ 3268
tet 3237
ul@@ 3215
de@@ 3187
habe 3178
kt 3177
len 3169
sa@@ 3165
über@@ 3150
f 3149
ma@@ 3144
nach 3142
dieser 3129
mir 3118
äh@@ 3093
Pro@@ 3055
om@@ 3037
z 3032
chten 3015
bei 3015
ert 3007
o 2996
her@@ 2983
ör@@ 2958
mehr 2951
eu@@ 2950
lichen 2941
chte 2914
tra@@ 2910
liche 2886
1@@ 2880
ck@@ 2877
vor@@ 2867
Wenn 2862
Welt 2847
ie@@ 2822
ere 2810
ier@@ 2802
r 2801
alle 2787
wen@@ 2773
ben@@ 2768
lei@@ 2761
me 2734
cht@@ 2733
i 2713
ni@@ 2710
all 2700
d 2690
j@@ 2688
gel@@ 2669
den@@ 2643
fen 2639
machen 2620
ber@@ 2614
ger@@ 2599
al 2592
wurde 2577
v@@ 2573
op@@ 2572
ken 2567
Ar@@ 2560
lich@@ 2557
ach@@ 2531
ne 2528
ste 2528
Ein@@ 2526
Sp@@ 2524
- 2522
we@@ 2520
immer 2506
ück@@ 2485
ün@@ 2477
kommen 2463
am 2457
zum 2456
ag@@ 2446
Re@@ 2431
durch 2428
Gr@@ 2428
eines 2427
Ihnen 2406
heit 2381
meine 2369
us@@ 2350
gan@@ 2350
da@@ 2333
äu@@ 2323
wirklich 2321
ieren 2292
ke 2284
ing@@ 2280
th@@ 2268
hei@@ 2262
ann 2255
ungs@@ 2248
for@@ 2235
U@@ 2233
weil 2225
elt 2220
viel 2212
wer@@ 2212
tun 2196
äl@@ 2191
dar@@ 2188
wi@@ 2175
per@@ 2174
iert 2174
ischen 2172
bei@@ 2166
Er 2157
ische 2141
Au@@ 2139
c@@ 2105
hr@@ 2099
Also 2099
ak@@ 2098
gr@@ 2093
unsere 2092
ir@@ 2091
nt 2088
Was 2086
gef@@ 2084
Ges@@ 2083
geb@@ 2076
unter@@ 2067
b 2060
h 2057
ah@@ 2053
hatte 2039
aten 2036
ts@@ 2035
♫ 2035
u 2034
dieses 2021
ihre 2016
rie@@ 2009
tei@@ 2009
ehen 2006
ff@@ 2003
sagen 1998
Vor@@ 1996
En@@ 1990
se@@ 1986
da 1980
Leute 1976
är@@ 1965
diesem 1963
ten@@ 1958
te@@ 1958
ation 1948
Zeit 1941
be 1935
ap@@ 1931
keine 1925
tionen 1924
on 1919
Leben 1913
eln 1913
müssen 1912
cher 1911
all@@ 1907
so@@ 1885
kan@@ 1883
stell@@ 1879
du@@ 1878
viele 1877
kon@@ 1876
ell@@ 1866
men@@ 1863
auen 1854
wel@@ 1840
vi@@ 1837
Kon@@ 1834
ek@@ 1833
führ@@ 1830
tion 1823
inn@@ 1820
hin@@ 1819
gi@@ 1818
und@@ 1813
Te@@ 1810
einfach 1806
sagte 1800
glei@@ 1798
wissen 1794
Jahren 1785
ür@@ 1784
diesen 1783
Dinge 1782
waren 1777
nten 1774
Al@@ 1767
mit@@ 1767
andere 1765
la@@ 1762
el 1756
ellen 1750
In 1749
geht 1746
mal 1745
Zu@@ 1734
gew@@ 1730
zei@@ 1724
stellen 1721
iel@@ 1721
schaft 1720
keit 1715
jetzt 1712
em 1706
ihr 1699
sen@@ 1697
gesch@@ 1691
Aus@@ 1683
eri@@ 1683
unden 1683
end 1680
anderen 1680
bin 1678
gehen 1673
wo 1670
sel@@ 1669
ehr@@ 1666
us 1663
zwei 1661
Or@@ 1660
ob@@ 1659
det 1656
im@@ 1649
fü@@ 1646
Der 1646
Art 1644
elle 1643
pro@@ 1643
Wie 1640
su@@ 1633
oh@@ 1628
geh@@ 1624
geben 1620
ger 1619
nehmen 1611
alles 1608
ru@@ 1605
off@@ 1605
ale 1603
würde 1602
finden 1601
eit 1600
sti@@ 1598
lo@@ 1596
ßen 1587
tion@@ 1583
zur 1581
lt 1573
Unter@@ 1573
Ent@@ 1554
sch 1553
war@@ 1545
füh@@ 1544
ne@@ 1538
kom@@ 1533
ß 1531
ts 1527
brau@@ 1512
bis 1509
fol@@ 1500
ander@@ 1493
Jahre 1490
damit 1489
ze 1488
des@@ 1487
2@@ 1484
dr@@ 1469
at 1465
fan@@ 1463
du 1462
bt 1449
beg@@ 1448
denken 1447
pr@@ 1440
For@@ 1440
Wei@@ 1439
x@@ 1439
muss 1429
0@@ 1429
groß@@ 1425
fin@@ 1424
fra@@ 1423
.@@ 1409
ar 1400
ess@@ 1399
gut 1397
dies 1397
sol@@ 1392
or 1390
schn@@ 1385
tz@@ 1384
mein 1380
ität 1378
mög@@ 1377
inter@@ 1376
glau@@ 1375
tim@@ 1375
versu@@ 1374
Sta@@ 1373
ob 1372
mei@@ 1370
halten 1365
selbst 1359
Ma@@ 1355
denn 1345
wichti@@ 1344
fahr@@ 1341
; 1333
ell 1331
tig 1331
Un@@ 1326
Man 1324
hal@@ 1320
We@@ 1312
mer@@ 1306
schon 1304
Auf@@ 1296
eht 1293
5 1292
nach@@ 1291
ihnen 1289
ut 1286
Wis@@ 1286
dung 1285
zusam@@ 1284
davon 1281
tern 1274
Nun 1273
zt 1273
ent 1271
ler@@ 1266
denen 1266
vielleicht 1262
möchte 1260
alen 1255
A 1254
rit@@ 1254
wieder 1253
ler 1246
Ab@@ 1243
Geschichte 1237
Sa@@ 1236
nen@@ 1232
ken@@ 1229
ahr@@ 1223
br@@ 1223
lu@@ 1223
weise 1221
mt 1208
hatten 1203
schaf@@ 1202
ck 1200
ur 1197
kommt 1191
isch 1189
jem@@ 1185
ihn 1185
halb 1179
Mit@@ 1177
schein@@ 1177
her 1176
ön@@ 1175
&apos; 1169
esen 1165
leben 1165
Kinder 1163
ganz 1161
aum 1156
heute 1152
ex@@ 1149
ändern 1149
Gen@@ 1148
Hier 1146
ec@@ 1145
neu@@ 1142
ende 1141
Sy@@ 1139
ielen 1137
fer@@ 1130
gung 1130
ran@@ 1129
tro@@ 1126
y 1122
änder@@ 1121
drei 1121
ens 1120
könnte 1119
gl@@ 1115
besch@@ 1110
bringen 1109
ta@@ 1107
meiner 1106
fl@@ 1105
größ@@ 1103
arbei@@ 1102
Diese 1101
twor@@ 1101
dort 1099
hör@@ 1098
wurden 1097
tiv@@ 1097
he 1091
zeu@@ 1090
ffen 1090
nun 1090
000 1086
seine 1085
einige 1085
Jahr 1085
iger 1082
wä@@ 1081
üh@@ 1080
lassen 1079
Stu@@ 1078
dern 1078
darüber 1077
unter 1076
ner 1076
wor@@ 1074
entwick@@ 1072
wollen 1072
Her@@ 1072
tisch@@ 1068
og@@ 1066
! 1065
nis 1064
paar 1063
Fra@@ 1062
Um@@ 1058
Per@@ 1058
Bil@@ 1058
sieht 1054
schen 1054
Fre@@ 1051
Th@@ 1047
nah@@ 1046
genau 1046
ih@@ 1045
TED 1045
etzt 1045
äch@@ 1044
lichkeit 1044
tes 1044
Ein 1040
eigen@@ 1039
0 1038
gab 1038
wahr@@ 1037
Gehir@@ 1036
fe 1034
unde 1033
tu@@ 1030
pl@@ 1028
ich@@ 1026
is 1025
qu@@ 1023
sondern 1018
erung 1018
unserer 1017
Problem 1013
tre@@ 1011
gu@@ 1011
werde 1009
ha@@ 1008
erte 1008
tatsächlich 1005
na@@ 1005
as 1005
ing 1004
Mar@@ 1003
lung 998
Als 996
tung 996
macht 994
nat@@ 993
tigen 991
neue 991
utzen 988
einf@@ 986
lau@@ 986
enden 985
Li@@ 982
bar@@ 982
schi@@ 979
bi@@ 979
äd@@ 978
zwischen 977
bra@@ 976
wäre 973
wus@@ 970
it 970
are 968
Leben@@ 967
Nach@@ 967
aut 966
erzäh@@ 966
bede@@ 964
est@@ 964
denke 963
Des@@ 963
kam 962
ürlich 962
man@@ 955
ad@@ 953
Teil 953
vom 952
4@@ 952
ast 950
mm@@ 950
3@@ 947
ka 945
Ber@@ 944
Beispiel 944
kte 943
weiß 940
iel 939
doch 939
assen 938
wir@@ 937
utz@@ 937
19@@ 937
to@@ 937
Wass@@ 936
Me@@ 933
Di@@ 932
mo@@ 929
bar 929
gemacht 928
os 928
mus@@ 927
dan@@ 924
ok@@ 923
fi@@ 923
hät@@ 923
amen 923
schei@@ 923
durch@@ 919
dazu 918
oren 917
hi@@ 917
sogar 917
funktion@@ 916
gent@@ 915
p 912
gte 912
Mon@@ 912
lin@@ 911
wis@@ 910
öff@@ 910
cken 909
weiter 908
chn@@ 908
üt@@ 907
allen 906
set@@ 905
glaube 904
Geb@@ 900
tel@@ 899
est 898
irgend@@ 897
kein 895
ja 890
tri@@ 890
Kom@@ 886
aufen 885
mensch@@ 884
Tag 881
zeigen 881
ker 880
viel@@ 879
mp@@ 879
lus@@ 878
nie 875
einmal 874
alt 874
mer 873
kön@@ 873
to 872
bin@@ 871
eld 871
ild 869
ank 868
gten 868
son 867
bl@@ 866
Wir@@ 865
ohne 864
näch@@ 864
Frage 862
atz 862
ung@@ 862
Medi@@ 861
ihr@@ 857
8@@ 857
So 855
tur 853
Men@@ 853
nis@@ 852
gem@@ 851
kennen 851
gerade 849
age 848
ati@@ 848
nung 846
zurück 844
verschie@@ 844
während 843
Eine 842
5@@ 841
Zei@@ 841
ihren 839
Dies 838
jeder 837
ersten 837
Com@@ 836
igen 836
Ex@@ 835
Über@@ 835
würden 835
dafür 833
Bu@@ 833
nichts 833
alten 830
ph@@ 830
ern@@ 830
keiten 829
ster 827
sagt 826
passiert 825
unser 825
uns@@ 824
arbeiten 823
alis@@ 823
heraus@@ 822
asch@@ 821
ach 821
ho@@ 820
vol@@ 820
wegen 819
zeigt 818
sta@@ 817
Ih@@ 816
Jahr@@ 813
ät@@ 812
lä@@ 810
pf@@ 809
Bi@@ 808
sprechen 808
ft@@ 807
richti@@ 807
Par@@ 806
ber 806
Inter@@ 805
will 805
Ph@@ 804
Gesch@@ 804
wohl 804
v 803
ahl 803
los@@ 803
tische 802
Mo@@ 802
verstehen 802
pe@@ 801
zwei@@ 801
Talk 800
Ch@@ 799
schaffen 798
2 796
ßt 794
6@@ 790
nte 790
star@@ 790
Frauen 787
gra@@ 787
öh@@ 787
str@@ 785
Arbeit 783
ble@@ 783
tete 783
War@@ 782
ig 780
sei@@ 779
konnte 779
Rei@@ 779
ass@@ 778
warum 778
Fü@@ 777
äf@@ 777
Ihre 776
he@@ 776
ind 776
Sei@@ 776
beh@@ 775
daran 773
Subtitles 772
Transcript 772
Idee 772
senschaf@@ 771
ös@@ 771
Nat@@ 770
onen 768
Millionen 768
erste 768
schie@@ 768
amm@@ 767
the@@ 766
sy@@ 766
zur@@ 764
Prozent 762
under@@ 762
wer 761
kun@@ 756
ali@@ 756
stän@@ 755
pu@@ 755
kur@@ 754
oll@@ 754
voll@@ 753
erst 752
hin 751
verst@@ 750
sollten 750
unkt 749
unk@@ 747
große 747
olog@@ 745
stand 745
etwa 743
win@@ 743
Dies@@ 743
ging 741
sollte 741
hunder@@ 737
letzten 736
innen 736
gegen 736
berei@@ 735
Kre@@ 735
ück 732
Regi@@ 731
Ä@@ 729
9@@ 729
Mö@@ 728
meinen 728
letz@@ 728
chnolog@@ 727
Land 726
dabei 726
besser 725
re 725
ien 724
rupp@@ 724
ganze 722
gesehen 721
wollte 720
Pl@@ 719
tel 713
bo@@ 712
Kin@@ 712
ed 711
7@@ 711
usi@@ 710
ins 707
bil@@ 701
Dan@@ 700
Po@@ 699
Qu@@ 698
ches 698
Se@@ 693
10 692
chti@@ 692
ander 689
res@@ 688
ster@@ 687
son@@ 687
Y@@ 685
unser@@ 685
lli@@ 685
amp@@ 683
Ger@@ 681
Ö@@ 681
stat@@ 678
Milli@@ 677
pp@@ 677
Na@@ 675
erg@@ 674
Ri@@ 669
x 669
00 666
rank@@ 657
ide@@ 656
Le@@ 653
ige 652
nor@@ 651
erz@@ 650
Min@@ 645
Je@@ 645
tell@@ 644
ingen 641
per 639
ac@@ 636
pt 632
let@@ 629
dig@@ 627
ät 624
ser@@ 622
ine 622
wick@@ 619
ort 619
af@@ 619
zus@@ 615
hel@@ 615
Tei@@ 615
chi@@ 613
ay 613
... 613
Br@@ 610
wie@@ 609
ep@@ 608
Mi@@ 607
neh@@ 607
zer@@ 606
1 603
fre@@ 603
ant 596
ollar 593
har@@ 593
„ 587
forma@@ 586
Univers@@ 586
üs@@ 583
3 582
Indi@@ 581
ist@@ 581
mö@@ 576
bri@@ 575
enti@@ 569
onder@@ 568
enn 567
% 567
4 559
So@@ 556
8 554
get@@ 554
stem 553
ef@@ 551
net 551
Su@@ 550
“ 549
ll@@ 549
ic@@ 547
20 546
ater 545
50 545
eter 544
rop@@ 542
ges 541
Ihr@@ 540
eg@@ 535
stem@@ 534
et 534
min@@ 532
woh@@ 531
ord@@ 530
dru@@ 529
alls 529
nam@@ 526
tive 523
Ide@@ 520
tur@@ 518
our@@ 517
ev@@ 514
ris@@ 512
oment 511
mi@@ 511
dis@@ 510
tal@@ 507
Afri@@ 506
Wor@@ 505
sh@@ 502
wirk@@ 500
hol@@ 499
bess@@ 492
ou@@ 489
net@@ 487
yp@@ 487
mor@@ 486
20@@ 483
me@@ 481
6 480
Ne@@ 480
wa@@ 479
ori@@ 479
Ameri@@ 479
mu@@ 478
bel@@ 478
lit@@ 477
au 476
par@@ 475
ier 475
ause 469
spi@@ 464
sion 456
ff 455
wan@@ 454
Geschi@@ 452
end@@ 451
passi@@ 449
ate 449
200@@ 448
isi@@ 448
arti@@ 448
ron@@ 447
dam@@ 444
sor@@ 441
S 440
uni@@ 439
sensch@@ 439
e-@@ 438
fe@@ 436
dre@@ 435
tru@@ 434
ari@@ 433
del 429
Chin@@ 427
30 426
mis@@ 423
no@@ 423
gs 422
vers@@ 422
ahr 419
eiten 415
7 414
pa@@ 411
Ok@@ 410
ks 408
sit@@ 408
stru@@ 405
land 405
ess 404
spe@@ 403
Proz@@ 403
bet@@ 403
woll@@ 401
ast@@ 400
ers 397
bre@@ 397
ple@@ 397
Internet 396
ose 396
Mensch@@ 394
100 393
Din@@ 389
Ta@@ 386
les 384
stu@@ 381
sk@@ 380
ami@@ 379
New 379
gro@@ 375
ve 375
off 369
9 368
elleicht 367
bu@@ 365
glob@@ 364
ution 363
&#91; 362
&#93; 362
ubli@@ 361
aff@@ 358
,@@ 358
ver 356
scha@@ 356
system 355
ds 352
stra@@ 351
organ@@ 349
poli@@ 347
fri@@ 345
illi@@ 341
one 338
nov@@ 336
♪ 336
ms 333
eff@@ 331
tor 328
ei 328
interes@@ 324
ga@@ 322
mar@@ 322
ure 319
ologi@@ 318
ysi@@ 315
ton 315
iz@@ 313
app@@ 313
ehr 312
co@@ 305
ven@@ 303
ase 301
olo@@ 300
oo@@ 299
K 298
No@@ 297
ros@@ 297
öß@@ 295
TE@@ 295
spre@@ 293
ns 293
ill@@ 293
ack@@ 292
Fr@@ 288
ass 287
gh@@ 284
bas@@ 284
ah 283
soll@@ 282
po@@ 282
Tran@@ 280
rel@@ 278
bst 277
medi@@ 275
ey 274
pri@@ 274
wür@@ 273
ard 273
Geh@@ 271
do@@ 270
ame 270
mat@@ 268
ll 266
gend@@ 260
evol@@ 259
eute 258
ans 258
ce 257
om 257
ven 257
fu@@ 248
Ü@@ 247
hab@@ 246
pi@@ 244
ys 242
ub@@ 241
mon@@ 240
tin@@ 238
C 233
Bei@@ 233
blo@@ 231
ir 231
vis@@ 229
stre@@ 227
posi@@ 227
od 224
chan@@ 222
Beisp@@ 221
D 221
tem@@ 219
atsächlich 219
ste@@ 214
dri@@ 214
ance 212
M 212
bein@@ 210
B 205
G 205
beit 204
fa@@ 204
c 204
dies@@ 203
ensch@@ 203
il 201
ome 200
ment 200
/ 199
chts 198
ust 198
» 198
ity 197
por@@ 196
I 196
« 195
T 195
&@@ 195
formation 194
ings 193
ment@@ 193
hrend 192
tional 191
inv@@ 186
of 185
müs@@ 184
plan@@ 182
art 182
P 182
un 181
ad 181
assi@@ 180
ia 179
avi@@ 176
ry 174
rom 172
ons 170
ld 169
V 168
gener@@ 168
Uni@@ 167
ative 166
go@@ 166
— 164
ci@@ 164
O 163
ves 162
rap@@ 159
w 158
ters 158
tit@@ 158
th 157
form 155
stand@@ 154
sm@@ 154
pon@@ 149
L 148
ther@@ 147
sig@@ 146
line 146
Am@@ 144
ats@@ 143
ese 142
don 142
ki@@ 141
ole 140
ok 138
belie@@ 136
dy 135
wei 134
H 133
vie@@ 132
pre@@ 132
ans@@ 126
ade 126
op 125
abi@@ 122
R 121
del@@ 120
ly 118
lob@@ 118
ow 117
wur@@ 116
same 114
F 113
ty 112
go 111
E 111
pres@@ 111
mark@@ 111
xt 111
nd 108
eng@@ 107
ächlich 106
physi@@ 106
ents 106
id 106
ack 103
desig@@ 102
bot@@ 101
ors 100
our 99
ws 98
do 97
ps 96
ood 95
N 94
X@@ 94
ue 94
exp@@ 93
ets 93
sc@@ 92
igh@@ 92
som@@ 92
ool 91
bor@@ 91
W 91
Sub@@ 90
dur@@ 90
kes 88
ost 88
pos@@ 88
$ 87
the 85
wa 84
oc@@ 84
technolog@@ 84
ear@@ 82
exper@@ 82
these 82
rec@@ 81
ies 81
ates 81
wom@@ 81
use 80
ong 80
funk@@ 78
old 78
lic@@ 77
abei 76
The 76
my 75
trans@@ 74
ands 73
by 71
low 71
aga@@ 69
sur@@ 69
king 68
than 67
ogar 67
hat@@ 67
sub@@ 66
how 66
thei@@ 64
can 63
ars 63
here 62
ther 62
lar@@ 59
hu@@ 59
hum@@ 59
fir@@ 58
hig@@ 58
ence 57
col@@ 56
dat@@ 55
” 55
Wh@@ 55
get 54
X 54
U 54
Q@@ 54
ic 54
ble 54
real 54
ory 53
ago 53
my@@ 52
ace 52
wn 51
can@@ 50
val@@ 49
we 49
its 48
big 48
vel@@ 48
ous@@ 48
were 47
ke@@ 47
é@@ 46
cle@@ 44
gh 44
see 44
cy 43
nec@@ 43
back 42
problem 42
compu@@ 42
tic@@ 42
é 41
ary 41
.. 40
ots 39
still 39
num@@ 39
J 39
live 38
car@@ 37
con@@ 37
› 36
‹ 36
cl@@ 36
iness 36
qui@@ 36
wischen 36
’ 35
over 35
then 35
lear@@ 35
face 35
… 34
,000 32
int 31
red 31
cal 31
right 31
ding 31
bit 31
bus@@ 31
Bec@@ 30
Y 30
design 29
econ@@ 29
way 29
for 29
tle 28
Q 28
bab@@ 27
able 27
cul@@ 27
cre@@ 26
° 26
well 26
‘ 26
ject 25
kind 25
ye@@ 24
ness 24
any@@ 24
Z 23
up 23
chil@@ 23
kno@@ 23
eicht 23
person 22
q@@ 22
ving 22
ice 22
β@@ 21
after 21
á@@ 21
ce@@ 21
had 21
part 20
more 20
ep 20
fut@@ 20
com@@ 20
´ 20
ular 20
cor@@ 19
ces 19
simp@@ 19
any 19
í@@ 19
ou 19
ting 18
gre@@ 18
½ 18
= 18
blem 18
+ 17
sho@@ 17
put 17
ish 17
fami@@ 17
school 17
lec@@ 17
ima@@ 17
day 17
dic@@ 16
cer@@ 16
ties 15
you 15
ç@@ 15
differ@@ 15
ous 15
time 15
ight 14
ally 14
mem@@ 14
stor@@ 14
let 14
bec@@ 14
cou@@ 14
shi@@ 14
coun@@ 14
side 14
but 14
lea@@ 13
read@@ 13
² 13
alk 13
ound 13
ó@@ 13
illion 13
sort 13
ght 12
too 12
play 12
now 12
fac@@ 12
say 12
@ 12
last 12
work 11
è@@ 11
very 11
out 11
duc@@ 11
out@@ 11
pla@@ 11
try 11
ture 11
‟ 10
à 10
ations 10
not 10
We 10
tic 10
ning 10
‚ 10
thr@@ 10
Now 10
ited 9
ely 9
ough 9
supp@@ 9
cra@@ 9
reas@@ 9
soci@@ 9
light 9
‒ 9
ways 8
á 8
ñ@@ 8
water 8
It 8
ree 8
) 8
j 8
You 8
dren 8
life 8
ating 8
no 8
cri@@ 7
tell 7
This 7
thin@@ 7
ated 7
ã@@ 7
if 7
He 7
port@@ 7
ality 6
very@@ 6
has 6
love 6
ould 6
loo@@ 6
diff@@ 6
lot 6
show 6
start 6
body 6
act 6
ü 6
down 6
his 6
# 6
cent@@ 6
ect 5
power 5
^ 5
him 5
tions 5
own 5
quot@@ 5
ects 5
 5
­ 5
è 4
ever 4
β 4
ned 4
 4
wh@@ 4
have 4
ö 4
ted 4
ful 4
cess 4
cour@@ 4
What 4
If 4
lity 4
into 4
happ@@ 4
q 4
human 4
tical 4
where 3
thou@@ 3
want 3
ë@@ 3
look 3
When 3
How 3
something 3
come 3
dn 3
ć 3
less 3
There 3
technology 3
comp@@ 3
ople 3
perc@@ 3
take 3
that 3
used 3
times 3
€ 3
That 2
with 2
wing 2
ø@@ 2
possi@@ 2
million 2
your 2
But 2
buil@@ 2
two 2
ó 2
feel 2
data 2
around 2
 2
í 2
new 2
ked 2
comes 2
self 2
 2
ê@@ 2
spec@@ 2
¥ 2
ä 2
™ 2
Well 2
ved 2
world 2
done 2
little 2
( 2
give 2
story 2
never 2
came 2
Á@@ 2
And 2
only 2
fore 1
struc@@ 1
ween 1
Å@@ 1
Ä 1
about 1
incre@@ 1
Č@@ 1
esn 1
ying 1
They 1
econom@@ 1
commun@@ 1
® 1
ú@@ 1
к@@ 1
ask 1
most 1
did 1
going 1
œ@@ 1
ë 1
Ü 1
who 1
`@@ 1
got 1
point 1
city 1
apos@@ 1
comm@@ 1
make 1
﻿ 1
ī@@ 1
through 1
find 1
better 1
think 1
year@@ 1
ý@@ 1
Ű@@ 1
pic@@ 1
× 1
other 1
doing 1
sci@@ 1
every 1
¶ 1
just 1
` 1
good 1
Ç@@ 1
first 1
© 1
working 1
ā@@ 1
some@@ 1
³ 1
à@@ 1
É@@ 1
cap@@ 1
送 1
你 1
葱 1
understand 1
they 1
eas@@ 1
thought 1
like 1
