, 142706
. 105728
die 43353
und 39692
der 30650
ist 26402
in 24418
es 23240
das 23063
zu 22643
ich 19451
wir 19209
den 17104
ein 16070
Sie 15918
sie 15366
&quot; 14961
von 14365
dass 14102
eine 14093
er 13859
nicht 13580
k@@ 12978
Und 12476
en 12364
er@@ 12205
ten 11659
te 11092
: 11033
mit 10951
auf 10428
Ich 9901
wie 9613
sich 9374
an@@ 9357
an 9250
ver@@ 9087
sind 8917
um 8877
? 8738
für 8703
t@@ 8690
haben 8595
als 8098
f@@ 8047
sch@@ 7949
K@@ 7926
s@@ 7900
S@@ 7829
T@@ 7746
m@@ 7697
man 7573
t 7565
en@@ 7498
st@@ 7448
H@@ 7404
d@@ 7275
dem 7188
war 7081
B@@ 7077
ung 7066
Das 7057
so 7044
z@@ 7025
F@@ 6974
l@@ 6671
-@@ 6667
Es 6656
n@@ 6621
g@@ 6614
gen 6584
ge@@ 6566
was 6463
b@@ 6360
diese 6274
einen 6230
im 6136
M@@ 6073
be@@ 6008
W@@ 5989
Wir 5975
aus 5974
ch@@ 5972
D@@ 5938
wenn 5751
des 5732
ü@@ 5732
Sch@@ 5698
uns 5625
e 5432
h@@ 5324
können 5261
werden 5141
Ver@@ 5077
P@@ 5062
über 5038
e@@ 5022
R@@ 5014
oder 4989
einer 4969
u@@ 4926
N@@ 4874
hat 4872
r@@ 4861
auch 4828
A@@ 4784
ge 4782
aber 4681
G@@ 4542
einem 4541
g 4518
Die 4512
ungen 4504
kann 4412
L@@ 4409
ein@@ 4406
Aber 4359
el@@ 4343
w@@ 4335
al@@ 4243
wird 4160
in@@ 4130
un@@ 4121
ä@@ 4065
nur 4042
E@@ 4035
a 4028
zu@@ 4022
sehr 4021
chen 3982
-- 3912
Menschen 3875
– 3815
re@@ 3810
de 3808
Z@@ 3805
gibt 3795
sein 3793
a@@ 3782
hier 3781
aus@@ 3781
s 3771
ti@@ 3736
mich 3710
sehen 3709
ri@@ 3680
An@@ 3642
dann 3592
also 3553
i@@ 3539
auf@@ 3516
ent@@ 3487
st 3465
ab@@ 3448
au@@ 3443
ter 3433
ar@@ 3422
noch 3408
ö@@ 3406
ei@@ 3364
cht 3339
ern 3313
etwas 3293
or@@ 3263
ben 3243
rei@@ 3237
p@@ 3230
at@@ 3209
lich 3194
habe 3178
vor 3175
di@@ 3153
ges@@ 3151
nach 3142
dieser 3129
mir 3118
li@@ 3098
bei 3015
ie 2980
mehr 2951
et@@ 2932
In@@ 2929
gen@@ 2905
um@@ 2902
ch 2877
che 2874
Wenn 2862
nen 2857
sen 2850
Be@@ 2850
es@@ 2849
le@@ 2849
Welt 2847
alle 2787
kt 2776
Er@@ 2742
gt 2738
men 2737
y@@ 2737
is@@ 2699
C@@ 2687
k 2662
O@@ 2645
St@@ 2635
machen 2620
J@@ 2613
on@@ 2580
wurde 2577
ken 2567
le 2563
V@@ 2538
it@@ 2532
vor@@ 2527
Ein@@ 2526
- 2522
sp@@ 2511
immer 2506
n 2498
der@@ 2486
zum 2456
ur@@ 2441
am 2437
o@@ 2436
Re@@ 2431
durch 2428
über@@ 2426
Ihnen 2406
ter@@ 2392
ro@@ 2377
ert 2373
eren 2372
meine 2369
m 2364
ol@@ 2324
wirklich 2321
os@@ 2308
liche 2308
ber@@ 2289
z 2283
eh@@ 2275
kl@@ 2270
sten 2264
ungs@@ 2248
chten 2234
o 2230
weil 2225
and 2216
viel 2212
wer@@ 2198
tun 2196
her@@ 2181
ischen 2172
ne 2159
Er 2157
ot@@ 2147
ck@@ 2146
eines 2142
ische 2141
I@@ 2127
si@@ 2126
fen 2126
zi@@ 2108
Also 2099
ak@@ 2098
unsere 2092
nt 2088
Was 2086
ere 2079
heit 2054
lie@@ 2040
hatte 2039
♫ 2035
cht@@ 2031
lichen 2028
dieses 2021
ie@@ 2018
ihre 2016
as@@ 2011
sagen 1998
gel@@ 1996
wei@@ 1986
len 1980
da 1980
lei@@ 1976
Leute 1976
diesem 1963
l 1951
ra@@ 1943
i 1943
Ge@@ 1943
Zeit 1941
zen 1935
be 1935
il@@ 1931
keine 1925
tet 1922
Leben 1913
müssen 1912
ut@@ 1910
f 1893
ft 1891
viele 1877
ger@@ 1872
j@@ 1859
Kon@@ 1834
om@@ 1823
de@@ 1820
ma@@ 1819
1@@ 1807
einfach 1806
sagte 1800
än@@ 1798
wissen 1794
Jahren 1785
diesen 1783
Dinge 1782
on 1781
waren 1777
den@@ 1771
Al@@ 1767
andere 1765
th@@ 1764
am@@ 1763
kommen 1750
unter@@ 1750
In 1749
geht 1746
ul@@ 1732
ieren 1729
jetzt 1712
ihr 1699
da@@ 1694
gesch@@ 1691
el 1690
Vor@@ 1684
Aus@@ 1683
anderen 1680
end 1679
bin 1678
gehen 1673
wo 1670
se 1666
sel@@ 1666
ben@@ 1663
zwei 1661
ör@@ 1658
Der 1646
ig@@ 1645
Art 1644
elle 1643
Wie 1640
ff@@ 1627
me 1622
per@@ 1621
ger 1619
alles 1608
ru@@ 1603
ale 1603
chte 1602
würde 1602
finden 1601
tr@@ 1599
ier@@ 1596
zur 1581
ation 1577
ts@@ 1576
ste 1575
lt 1573
bes@@ 1571
and@@ 1552
eln 1546
d 1536
all@@ 1519
bis 1509
hin@@ 1509
ek@@ 1504
ß@@ 1503
al 1503
em@@ 1494
Jahre 1490
damit 1489
ze 1487
all 1476
elt 1474
dr@@ 1469
at 1465
ellen 1464
du 1462
v@@ 1460
b 1459
ach@@ 1459
bt 1449
Ar@@ 1448
denken 1447
ten@@ 1436
mit@@ 1433
ün@@ 1431
muss 1429
ne@@ 1419
ing@@ 1405
gut 1397
dies 1397
ni@@ 1394
aten 1387
ür@@ 1385
mein 1380
kon@@ 1377
Sp@@ 1371
ob 1362
selbst 1359
geb@@ 1359
eu@@ 1352
denn 1345
gew@@ 1344
zei@@ 1344
ke 1342
är@@ 1341
ir@@ 1340
; 1333
tig 1331
so@@ 1328
wi@@ 1328
Man 1324
geben 1318
Un@@ 1317
ßen 1309
schon 1304
we@@ 1300
sen@@ 1294
gef@@ 1293
nach@@ 1291
ihnen 1289
iert 1289
dung 1285
davon 1281
Nun 1273
hal@@ 1272
em 1265
ah@@ 1264
äu@@ 1264
vielleicht 1262
möchte 1260
alen 1255
wieder 1253
det 1253
nehmen 1250
ler 1246
Ab@@ 1243
ß 1239
Geschichte 1237
op@@ 1231
ken@@ 1229
sti@@ 1226
Gr@@ 1225
Unter@@ 1212
fol@@ 1208
hatten 1203
ck 1200
lan@@ 1196
ag@@ 1193
kommt 1191
isch 1189
ihn 1185
Mit@@ 1177
her 1176
&apos; 1169
c@@ 1168
leben 1165
Kinder 1163
ap@@ 1161
ganz 1161
tion 1154
heute 1152
kan@@ 1152
Zu@@ 1149
Hier 1146
war@@ 1145
ende 1141
gung 1130
tro@@ 1126
2@@ 1126
drei 1121
könnte 1119
h 1114
mal 1112
ts 1110
besch@@ 1110
bringen 1109
Au@@ 1109
meiner 1106
stellen 1106
größ@@ 1103
Diese 1101
äl@@ 1100
dort 1099
wurden 1097
hr@@ 1096
nun 1090
gr@@ 1085
seine 1085
einige 1085
Jahr 1085
he 1081
üh@@ 1080
gi@@ 1080
lassen 1079
darüber 1077
unter 1076
us 1073
wollen 1072
kom@@ 1069
fü@@ 1068
for@@ 1068
tion@@ 1067
! 1065
nis 1064
paar 1063
Ges@@ 1059
Um@@ 1058
sieht 1054
genau 1046
TED 1045
äch@@ 1044
tes 1044
Ein 1040
geh@@ 1038
gab 1038
keit 1038
te@@ 1033
ück@@ 1032
sondern 1018
unserer 1017
halten 1015
Problem 1013
werde 1009
ha@@ 1008
erte 1008
tatsächlich 1005
as 1005
0@@ 1004
Mar@@ 1003
Ma@@ 1003
unden 1000
pl@@ 999
Als 996
tung 996
macht 994
cher 993
tigen 991
neue 991
u 991
oh@@ 989
wen@@ 987
enden 985
Auf@@ 979
bi@@ 978
zwischen 977
tern 973
wäre 973
lo@@ 970
Nach@@ 967
ent 965
ut 964
denke 963
kam 962
us@@ 960
ehr@@ 954
ad@@ 953
Teil 953
vom 952
sa@@ 951
ta@@ 950
mm@@ 950
rie@@ 948
3@@ 947
denen 947
gan@@ 945
Beispiel 944
kte 943
weiß 940
fra@@ 940
assen 938
wir@@ 937
y 937
utz@@ 937
Me@@ 933
Di@@ 932
bar 929
gemacht 928
ell@@ 928
os 928
durch@@ 919
dazu 918
oren 917
hi@@ 917
sogar 917
Pro@@ 914
tei@@ 914
gte 912
Mon@@ 912
ran@@ 912
lin@@ 911
cken 909
weiter 908
allen 906
glaube 904
fi@@ 903
kein 895
off@@ 894
ja 890
tri@@ 889
esen 889
br@@ 888
Kom@@ 886
aufen 885
Tag 881
zeigen 881
ker 880
lich@@ 880
nie 875
einmal 874
alt 874
mer 873
schaft 870
ehen 869
halb 869
bl@@ 866
ohne 864
Frage 862
ung@@ 862
zt 861
Medi@@ 861
is 859
ität 856
So 855
tionen 852
ell 849
gerade 849
groß@@ 849
nung 846
zurück 844
während 843
tra@@ 842
Eine 842
Te@@ 839
ihren 839
Dies 838
jeder 837
ersten 837
mo@@ 836
nen@@ 836
Über@@ 835
hei@@ 835
würden 835
dafür 833
su@@ 833
nichts 833
fer@@ 832
ess@@ 831
alten 830
qu@@ 830
ern@@ 830
pro@@ 830
ster 827
sagt 826
ur 826
passiert 825
unser 825
ok@@ 824
to@@ 824
arbeiten 823
alis@@ 823
heraus@@ 822
ach 821
zeigt 818
tu@@ 818
la@@ 816
des@@ 814
ät@@ 812
bei@@ 811
im@@ 810
inter@@ 810
pf@@ 809
Bi@@ 808
ön@@ 808
sprechen 808
Par@@ 806
ber 806
Inter@@ 805
will 805
Ph@@ 804
U@@ 804
Gesch@@ 804
wohl 804
los@@ 803
tische 802
rit@@ 802
verstehen 802
zwei@@ 801
Talk 800
Ch@@ 799
schaffen 798
ph@@ 793
nte 790
star@@ 790
Frauen 787
dar@@ 786
men@@ 785
ffen 784
Arbeit 783
tete 783
vi@@ 781
sei@@ 779
konnte 779
Rei@@ 779
warum 778
äf@@ 777
Ihre 776
beh@@ 775
he@@ 773
daran 773
Subtitles 772
Transcript 772
Idee 772
zeu@@ 770
dern 769
onen 768
Millionen 768
weise 768
Gen@@ 768
erste 768
eht 767
Fre@@ 763
Prozent 762
5 761
Sta@@ 760
kur@@ 754
voll@@ 753
erst 752
äh@@ 752
fl@@ 752
hin 751
verst@@ 750
sollten 750
ob@@ 749
unk@@ 747
große 747
Her@@ 745
unde 745
stand 745
est 744
etwa 743
win@@ 743
ing 742
p 741
ging 741
sollte 741
ens 737
letzten 736
gegen 736
Kre@@ 735
oll@@ 734
Stu@@ 733
x@@ 732
19@@ 731
est@@ 729
meinen 728
Land 726
dabei 726
besser 725
ien 724
ganze 722
gesehen 721
fin@@ 721
lichkeit 721
wollte 720
Pl@@ 719
ändern 718
na@@ 717
En@@ 717
ich@@ 716
eit 716
tel@@ 715
natürlich 715
tel 713
bekommen 713
Bil@@ 713
meisten 712
bauen 711
7@@ 711
meinem 710
könnten 710
str@@ 708
Bes@@ 708
or 707
ins 707
r 706
bar@@ 706
anden 705
lung 704
bil@@ 701
ähr@@ 701
ner 700
iele 700
Qu@@ 698
ches 698
licher 697
tischen 697
Or@@ 697
ihrer 696
arbei@@ 696
tik 696
mer@@ 693
Se@@ 693
10 692
chti@@ 692
weiter@@ 691
ass@@ 691
icht 691
stehen 690
erung 688
5@@ 688
ster@@ 687
ziemlich 686
welche 685
.@@ 685
Bild 684
amp@@ 683
tieren 682
essen 682
Ger@@ 681
Sy@@ 681
4@@ 681
Ö@@ 681
gel 680
wichti@@ 680
wach@@ 680
ec@@ 680
ander@@ 679
best@@ 679
Weg 678
pp@@ 677
igkeit 677
fe 676
.000 676
Na@@ 675
mt 674
tisch 671
ler@@ 669
inn@@ 669
lau@@ 669
Ri@@ 669
x 668
weit 667
zurück@@ 665
wichtig 664
brauchen 663
Mal 661
neu@@ 659
mei@@ 658
doch 658
ationen 658
einf@@ 657
ft@@ 657
darauf 656
enen 655
weniger 654
Le@@ 652
ar 652
ige 652
Gehirn 651
kleinen 651
lang 649
Daten 649
fäl@@ 646
Wasser 646
Sache 646
Je@@ 645
einander 644
wel@@ 644
tz@@ 643
ex@@ 642
wär@@ 642
Technologie 642
ingen 641
füh@@ 641
dachte 639
Lei@@ 638
führ@@ 634
tiert 634
We@@ 634
schen 633
Aut@@ 632
zusammen 631
jemand 630
Im 630
let@@ 629
dig@@ 627
kleine 626
ät 624
ine 622
Ende 622
zusammen@@ 621
Warum 620
son@@ 620
unseren 620
chn@@ 619
af@@ 619
hören 618
ac@@ 617
aut 617
zus@@ 615
Tei@@ 615
Geld 615
aum 614
res@@ 614
... 613
Br@@ 610
Dann 610
Li@@ 609
eigentlich 609
schi@@ 608
ep@@ 608
neh@@ 607
Mann 607
man@@ 606
zer@@ 606
fahren 604
vier 604
Dank 603
fre@@ 603
Wo@@ 602
sch 601
ab 601
2 600
Ihr 599
wis@@ 599
führen 599
Man@@ 598
lernen 597
führt 597
ihm 596
ant 596
schle@@ 596
Str@@ 595
ente 594
Dollar 593
Ent@@ 592
auen 592
bedeutet 591
möglich 588
„ 587
Ber@@ 587
hen 587
üt@@ 587
dan@@ 587
stell@@ 587
Zukunft 585
Seite 585
ann 584
se@@ 584
ße 584
üs@@ 583
eben 583
3 582
wor@@ 581
verb@@ 580
liches 579
großen 576
Lie@@ 576
For@@ 576
Kar@@ 576
bri@@ 575
eri@@ 575
wunder@@ 573
Weise 573
Wir@@ 572
to 571
Fl@@ 569
% 567
nor@@ 566
irgend@@ 566
nten 565
ckt 565
age 564
ser@@ 563
etzt 563
zieren 563
gesagt 563
Frau 563
versu@@ 562
lu@@ 562
zin@@ 560
jeden 559
4 559
6@@ 558
sam 557
So@@ 556
jem@@ 555
sozi@@ 555
antwor@@ 555
ganzen 554
8 554
du@@ 553
ka 552
ef@@ 551
Sel@@ 551
net 551
schauen 551
lus@@ 550
Su@@ 550
“ 549
Denn 548
kos@@ 547
keinen 546
20 546
50 545
mus@@ 544
eter 544
Grund 543
grei@@ 543
Raum 542
ges 541
gend 541
Bl@@ 541
und@@ 541
glauben 540
Ihr@@ 540
Tr@@ 540
versch@@ 540
Person 539
niem@@ 539
sah 539
hätte 539
öffent@@ 537
Stra@@ 537
indem 536
län@@ 536
bin@@ 534
oft 533
Gemein@@ 532
Ak@@ 532
min@@ 532
setzen 532
prä@@ 531
beim 531
woh@@ 531
dru@@ 529
et 529
nisse 529
Ort 527
amen 527
steht 526
tige 526
erzäh@@ 526
funktioniert 525
Danke 525
Stadt 524
mp@@ 524
9@@ 523
tive 523
Menge 523
bo@@ 522
heißt 522
tre@@ 522
versuchen 522
zent@@ 522
ierte 522
alität 522
Wei@@ 521
gu@@ 519
Da 519
Erde 519
Per@@ 519
ze@@ 519
sicher 518
tur 518
tur@@ 518
Bo@@ 515
Lebens@@ 515
gemein@@ 514
Schul@@ 513
seiner 513
wahrscheinlich 513
helfen 513
Ja 512
gestellt 511
wenig 511
welt@@ 511
mi@@ 511
legen 510
dis@@ 510
verk@@ 510
bst@@ 508
heraus 508
Probleme 508
nutzen 508
Vielen 507
schaften 507
Gesund@@ 507
genommen 507
tal@@ 507
Son@@ 507
vielen 506
liegt 506
Hand@@ 505
seit 504
gleich 503
mög@@ 503
enti@@ 502
Pf@@ 501
betra@@ 501
Den@@ 501
stellung 501
fast 500
Geb@@ 500
wirk@@ 500
schn@@ 500
Moment 499
hol@@ 499
ahl 499
Groß@@ 499
dungen 499
konnten 499
it 499
Kind 498
sh@@ 497
8@@ 494
Produ@@ 494
eigenen 493
ho@@ 493
fte 493
bess@@ 492
sta@@ 492
los 492
ene 492
Bet@@ 492
gute 492
worden 492
erst@@ 491
amm@@ 489
net@@ 487
stellt 487
asch@@ 487
zah@@ 487
asse 487
lange 487
mor@@ 486
Zei@@ 485
sol@@ 485
hö@@ 485
raft 484
wegen 484
später 484
neuen 483
20@@ 483
fragen 483
Jetzt 482
schnell 482
fünf 481
Neu@@ 481
6 480
Ne@@ 480
hör@@ 480
Du 480
wa@@ 479
tik@@ 479
igen 479
ori@@ 479
mu@@ 478
tiv@@ 478
liegen 478
erinn@@ 478
bel@@ 478
lit@@ 477
au 476
gegen@@ 476
braucht 476
Mutter 475
ier 475
Land@@ 474
Wahr@@ 473
zeh@@ 472
1 472
Forsch@@ 472
Arbei@@ 471
Mit 471
beg@@ 470
ord@@ 468
ang 468
ma 468
Wi@@ 468
suchen 467
gehört 465
jedes 465
lang@@ 465
komp@@ 464
Lu@@ 463
gten 463
pro 463
atz 462
Körper 462
seh@@ 462
blei@@ 462
wahr@@ 461
stän@@ 461
tschaft 461
kten 461
Kl@@ 461
Lin@@ 460
heits@@ 459
erklär@@ 458
To@@ 458
System 458
ahr@@ 458
tzlich 457
spielen 456
dessen 456
sion 456
kre@@ 456
Ameri@@ 456
ff 455
dlich 454
Krie@@ 454
nächsten 454
hand@@ 454
begann 454
wan@@ 454
erweise 453
pe@@ 453
Dar@@ 453
lte 453
genug 452
end@@ 451
schie@@ 451
bekan@@ 450
passi@@ 449
Sin@@ 449
teten 449
ast 448
200@@ 448
Ideen 448
arti@@ 448
ziehen 447
ate 447
heiten 446
Wor@@ 445
spr@@ 445
USA 445
De@@ 445
Schule 444
innen 444
dam@@ 444
jede 444
Bu@@ 443
Fall 442
richtig 442
par@@ 441
chen@@ 441
unserem 441
je@@ 441
sor@@ 441
erzählen 440
S 440
wä@@ 439
Fäh@@ 439
geschi@@ 438
A 438
letz@@ 438
e-@@ 438
produ@@ 438
tiv 437
deut@@ 437
enz 435
dre@@ 435
fe@@ 435
entde@@ 434
mm 434
tru@@ 434
wand@@ 434
the@@ 433
our@@ 433
Für 433
Ä@@ 432
sei 431
glück@@ 431
verändern 431
gri@@ 430
anders 430
weg 430
seinen 429
ou@@ 428
iger 428
tes@@ 428
30 426
del 426
erkennen 426
weg@@ 425
oben 425
kennen 425
Wissen 425
sage 424
mis@@ 423
fas@@ 423
no@@ 423
tschaf@@ 423
Computer 423
wer 423
Lehr@@ 423
entwickelt 422
gs 422
Jahrhunder@@ 422
vers@@ 422
wes@@ 422
bisschen 421
chter 420
überall 419
gl@@ 419
reden 418
Wer@@ 418
eller 417
cke 417
gleichen 417
gleich@@ 415
eiten 415
gang 415
Mo@@ 415
Antwort 415
fangen 415
äre 415
ungefähr 414
ll@@ 414
Informationen 414
7 414
ali@@ 414
tigt 414
Planeten 413
tragen 413
liz@@ 412
utzt 412
wieder@@ 412
sam@@ 412
bli@@ 410
000 410
Stim@@ 409
Mädchen 409
statt 409
Bau@@ 409
pr@@ 409
ati@@ 408
ihrem 408
sit@@ 408
ähn@@ 407
Dieses 406
arbeitet 406
Fragen 406
nahmen 405
stru@@ 405
sagten 405
ks 405
land 405
teil 404
ess 404
teilen 404
bare 404
Lös@@ 404
Proz@@ 403
Meine 403
findet 403
bet@@ 403
schnit@@ 403
Kin@@ 403
licht 402
Krank@@ 402
ari@@ 402
erten 402
chtung 401
Milliarden 401
Projekt 401
öh@@ 401
Regi@@ 401
seinem 401
rat@@ 401
lichkeiten 401
ries@@ 400
ischer 400
sche 400
ast@@ 400
satz 400
Woh@@ 400
falls 400
zo@@ 400
Ha@@ 399
Nat@@ 399
-S@@ 399
frei@@ 399
fand 399
Ur@@ 399
Bür@@ 399
Ex@@ 397
tens 397
bre@@ 397
Kul@@ 397
Internet 396
nennen 396
kamen 396
außer@@ 396
pa@@ 395
Mensch@@ 394
bereits 393
Afrika 393
wäh@@ 393
Geschichten 393
100 393
lagen 392
darum 392
Form 392
funktion@@ 391
Leuten 391
bit@@ 391
Entschei@@ 391
angen 391
Jahr@@ 391
Buch 390
Punkt 390
anzu@@ 390
Gesellschaft 389
eben@@ 389
richten 388
tig@@ 388
Familie 387
ünst@@ 387
ic@@ 387
besonders 387
jen@@ 387
Schl@@ 387
hoff@@ 387
Mod@@ 387
Ta@@ 386
Energie 386
taus@@ 386
Gehir@@ 385
olog@@ 385
Kor@@ 385
leb@@ 384
anderes 384
les 384
ange@@ 384
spra@@ 383
musste 383
namens 383
genau@@ 382
glich 382
Sit@@ 381
dich 381
lli@@ 381
anz@@ 381
Gener@@ 380
zeich@@ 380
sk@@ 380
zeit 380
ami@@ 379
New 379
machte 377
fft 376
euch 376
fän@@ 376
Männer 376
wus@@ 375
ve 375
Grund@@ 374
Auf 374
viel@@ 373
öff@@ 373
brau@@ 373
Licht 373
grün@@ 373
hätten 372
Nein 372
dau@@ 372
Natur 371
tisch@@ 371
schied 371
erreichen 371
unge 371
schau@@ 370
Mein 369
off 369
Poli@@ 368
Ergeb@@ 368
stei@@ 368
bs 368
gern 368
gende 368
9 368
sön@@ 367
entwickeln 367
Vielleicht 367
klar 367
ös@@ 367
v 366
are 366
verl@@ 366
trä@@ 366
bu@@ 365
richti@@ 365
Beh@@ 365
Wissenschaft 365
Gra@@ 364
trei@@ 364
benutzen 364
ist@@ 363
ser 363
Dur@@ 363
gesam@@ 362
&#91; 362
&#93; 362
olle 362
ris@@ 362
Spiel@@ 362
gar 362
Unternehmen 361
Far@@ 361
je 361
Musik 361
verschiedene 361
ziert 360
Organis@@ 360
einzel@@ 360
Fol@@ 360
bewe@@ 360
zäh@@ 360
yp@@ 359
gerne 359
iel 359
00 359
Arten 359
bestimm@@ 358
aff@@ 358
geln 358
,@@ 358
ilfe 358
ücken 357
Um 357
bevor 357
Berei@@ 357
einigen 357
ik@@ 357
Doch 356
ver 356
Them@@ 356
scha@@ 356
Zeit@@ 356
sel 356
Robot@@ 356
The@@ 355
Oder 355
Augen 355
system 355
darin 354
Indien 353
Kli@@ 353
Wel@@ 353
recht 353
Veränder@@ 353
Kopf 353
beiden 353
jedem 353
ensi@@ 352
Macht 352
tho@@ 352
leben@@ 352
ers 351
ierten 351
tim@@ 351
stra@@ 351
Minuten 351
ologie 351
Fir@@ 351
lä@@ 351
gab@@ 350
erhalten 350
gefunden 350
menschlichen 349
gebaut 349
Angst 349
manchmal 349
Hand 348
Materi@@ 348
elten 347
poli@@ 347
ogra@@ 347
Bezieh@@ 346
spiel@@ 346
Gegen@@ 346
vö@@ 346
Gruppe 346
ron@@ 345
Weil 345
Mu@@ 345
soll 345
Zusammen@@ 345
fühlen 345
Bilder 345
Nor@@ 345
ingt 345
Studi@@ 345
fri@@ 344
Fü@@ 344
ktion 344
Welt@@ 344
mal@@ 343
hän@@ 343
Spe@@ 343
berei@@ 342
Frei@@ 342
wollten 342
alien 342
Gl@@ 341
erz@@ 341
Wissenschaft@@ 340
vorstellen 340
Bei 339
eins 339
besten 339
Sprache 339
lle 338
eg@@ 338
ölk@@ 337
gem@@ 337
Gedan@@ 337
läu@@ 337
At@@ 337
Verbin@@ 337
har@@ 337
tlich 336
Vater 336
Hin@@ 336
Es@@ 336
schwer 336
♪ 336
Ro@@ 335
bewegen 335
ktur 335
verwenden 335
enzen 334
bringt 334
tä@@ 334
Masch@@ 334
stem@@ 334
mitt@@ 334
dig 333
ms 333
ierung 333
Stunden 333
erwar@@ 332
glob@@ 332
Patienten 332
eff@@ 331
sicht 331
irgendwie 331
Dem@@ 331
Po@@ 331
reis 331
igkeiten 331
me@@ 330
Regierung 330
Flug@@ 330
Men@@ 330
Gefühl 330
Techni@@ 329
Okay 329
verändert 329
aben 329
Sek@@ 329
einfa@@ 329
Sol@@ 328
luss 328
0 328
tor 328
lieren 328
fahr@@ 328
Pr@@ 328
son 328
Sachen 328
Lebens 328
ei 328
Desig@@ 328
spezi@@ 327
genheit 327
15 327
Design 327
setz@@ 327
hoch 327
ed 326
genan@@ 326
gewöhn@@ 326
schreiben 326
Städ@@ 326
gens 325
ner@@ 324
stoff@@ 324
eher 324
Glei@@ 323
Möglichkeit 323
aller 323
nis@@ 323
Sü@@ 323
äume 322
lässt 322
hr 322
einig@@ 322
ga@@ 322
Vor 322
tut 322
Progra@@ 322
dire@@ 322
bemer@@ 321
sechs 321
äus@@ 321
Hei@@ 320
zeug 320
tau@@ 320
tiven 320
Sti@@ 320
ützen 320
verr@@ 320
Gott 319
grund@@ 319
verschiedenen 319
interessan@@ 319
schwieri@@ 319
Kap@@ 318
chtet 318
schön 318
Mi@@ 318
entlich 318
erlau@@ 317
lösen 317
nämlich 317
unterschie@@ 317
Aufgab@@ 317
schlie@@ 317
wo@@ 317
isi@@ 317
Y@@ 316
frü@@ 316
Kur@@ 315
agi@@ 315
hunder@@ 315
gele@@ 315
ysi@@ 315
Sk@@ 315
schließlich 315
Bü@@ 315
ton 315
spro@@ 314
voll 314
illi@@ 314
getan 314
Th@@ 314
anz 314
bewus@@ 313
iz@@ 313
rieben 313
Ni@@ 313
app@@ 313
iel@@ 313
einzige 313
plex@@ 313
lag 313
Hause 312
Vortrag 312
grund 312
ehr 312
og@@ 312
Bab@@ 312
Ober@@ 312
Herausforder@@ 312
fort 312
Gew@@ 312
ure 312
wissenschaft@@ 311
denten 311
pt 311
schein@@ 311
hinter 310
innerhalb 310
re 310
Wort 310
ort 309
one 309
ett@@ 309
deren 309
Dieser 309
erzeu@@ 309
Kindern 309
Des@@ 308
punkt 308
len@@ 308
mus 307
Ste@@ 307
entschei@@ 307
auszu@@ 307
interessi@@ 307
itä@@ 307
treffen 306
asst 306
rop@@ 306
fr@@ 306
überhaupt 305
mar@@ 305
allem 305
zahl 304
llig 304
stellte 304
Mög@@ 304
gebracht 303
ritt 303
ven@@ 303
Mor@@ 302
err@@ 302
nimmt 302
gegeben 302
Zah@@ 302
Auto 301
Anfang 301
Universum 301
gän@@ 301
sicht@@ 301
Eltern 301
olo@@ 300
ähri@@ 300
unglaublich 300
Gebäude 300
menschliche 299
ativ@@ 299
Sicher@@ 299
gs@@ 299
mö@@ 298
La@@ 298
fanden 298
entfer@@ 298
Stück 298
stec@@ 298
dir 298
No@@ 297
Haus 297
Haup@@ 297
Är@@ 297
ase 297
Experim@@ 297
fall 296
brachte 296
Spiel 296
kam@@ 296
orie 295
öß@@ 295
assen@@ 295
beobach@@ 295
herum 294
Entwicklung 294
Ster@@ 294
Kol@@ 294
ständig 294
tom@@ 294
spi@@ 294
vol@@ 294
China 294
Mus@@ 294
Fil@@ 294
krie@@ 294
Min@@ 294
spre@@ 293
zun@@ 293
enten 293
ns 293
Wirk@@ 293
Prä@@ 293
Zwei@@ 293
zwar 293
Fahr@@ 292
Kan@@ 292
Erfol@@ 292
Bev@@ 292
groß 292
gleiche 292
Dingen 292
ros@@ 292
weitere 292
beginnen 292
sicher@@ 291
muni@@ 290
Werk@@ 290
uss 290
versucht 290
letzte 290
Wass@@ 290
scheint 290
Ru@@ 290
Tiere 289
fer 289
ill@@ 289
Mik@@ 289
eigene 289
aufzu@@ 289
kehr@@ 289
nächste 288
bau@@ 288
cher@@ 288
Freunde 288
absol@@ 288
Fr@@ 288
ass 287
aup@@ 287
TED@@ 287
Res@@ 287
teil@@ 287
ht 286
Stellen 286
Grün@@ 286
Ho@@ 286
verwen@@ 286
Fo@@ 286
möglichen 286
en-@@ 286
Kunst 286
Erfahrung 286
welt 286
nahm 285
meines 285
Länder 285
Glück 285
elte 285
Univers@@ 285
Lage 284
Publik@@ 284
ütz@@ 284
Ziel 284
abhän@@ 284
sache 284
Film 284
bas@@ 284
Pri@@ 284
Wes@@ 284
fläche 283
ismus 283
entwick@@ 283
Archit@@ 282
s-@@ 282
kämp@@ 282
sy@@ 282
wusste 282
gra@@ 282
soll@@ 282
nahme 282
falsch 281
amerikan@@ 281
jedoch 281
nov@@ 281
enz@@ 281
lien 280
Tran@@ 280
Tat@@ 280
Elek@@ 280
Rau@@ 280
Obje@@ 280
Oh 280
ergi@@ 280
mag 279
Mein@@ 279
tliche 279
Mis@@ 278
samm@@ 278
tlichen 278
nat@@ 278
chnologi@@ 278
mögen 278
merk@@ 278
außen 278
kul@@ 277
bst 277
Entwick@@ 277
ind 277
lesen 276
baren 276
opp@@ 276
unten 275
errei@@ 275
hält 275
ack@@ 275
zustellen 275
erstaun@@ 275
isch@@ 275
Video 274
Netz@@ 274
solche 274
etz@@ 274
spricht 274
wahr 273
wür@@ 273
ard 273
ßt 272
medi@@ 272
schaf@@ 272
Pap@@ 271
Geh@@ 271
40 271
ele@@ 271
po@@ 270
Dis@@ 269
isten 269
organis@@ 269
stat@@ 269
ig 269
Ei@@ 268
exis@@ 268
bald 268
bra@@ 268
York 267
gh@@ 266
ose 266
Har@@ 266
ank 265
ko@@ 265
Engl@@ 265
Kos@@ 265
kr@@ 265
Ju@@ 264
ey 264
änder@@ 264
10@@ 263
ame 262
Sa@@ 262
stri@@ 261
Kr@@ 261
gend@@ 260
Tel@@ 259
hil@@ 259
eute 258
einz@@ 258
ans 258
t-@@ 257
eigen@@ 257
nation@@ 257
ret@@ 257
ven 257
bestim@@ 257
omen 256
Bro@@ 256
Char@@ 256
ah 255
rank@@ 255
Dat@@ 254
om 253
ren 253
ation@@ 253
Si@@ 253
ften 252
Kör@@ 252
trau@@ 251
Proje@@ 251
Ele@@ 249
do@@ 248
fu@@ 248
bede@@ 247
ürlich 247
Compu@@ 247
interess@@ 247
Ü@@ 247
hab@@ 246
ang@@ 246
Vir@@ 245
unser@@ 244
Car@@ 242
ds 241
lage 241
ub@@ 241
imm@@ 241
mon@@ 240
pi@@ 240
get@@ 240
eld 240
Lo@@ 239
schwi@@ 239
Gi@@ 239
tin@@ 238
ys 237
dro@@ 236
mensch@@ 236
uation 236
Europ@@ 236
fest@@ 235
Is@@ 235
C 233
Wal@@ 233
Bei@@ 233
schrei@@ 233
mmt 232
60 232
fli@@ 232
blo@@ 231
zes 231
ums 230
Tra@@ 230
vis@@ 229
rem 229
fühl 228
ages 228
beginn@@ 228
thema@@ 228
Ir@@ 228
iet 228
stre@@ 227
posi@@ 227
ir 227
studi@@ 227
He@@ 227
emp@@ 227
tan@@ 226
schei@@ 225
sin@@ 224
unglaub@@ 223
fan@@ 223
Mat@@ 222
ev@@ 222
od 221
Beisp@@ 221
gent@@ 221
D 221
Vide@@ 220
Indi@@ 219
tem@@ 219
atsächlich 219
chs 217
aren 217
dest 217
Ih@@ 217
att@@ 216
co@@ 216
fes@@ 214
dri@@ 214
Kop@@ 213
ste@@ 213
tin 213
ance 212
M 212
ute 212
bein@@ 210
Co@@ 210
Fran@@ 210
ater 209
Bas@@ 209
Col@@ 208
Fin@@ 208
tot@@ 208
80 207
richt 206
utes 206
stitu@@ 206
199@@ 206
ls 206
B 205
Bar@@ 205
äd@@ 205
G 205
Ra@@ 205
CA 204
beit 204
fa@@ 204
uns@@ 204
pra@@ 204
25 204
dies@@ 203
ensch@@ 203
bel 202
asi@@ 201
radi@@ 201
abor 201
il 201
Män@@ 201
sion@@ 200
ment 200
usi@@ 200
ition 199
chmal 199
ome 199
/ 199
c 199
chts 198
» 198
OK 197
els 197
a-@@ 197
ateg@@ 197
wie@@ 197
form@@ 196
Grupp@@ 196
por@@ 196
12 196
oo@@ 196
I 196
« 195
T 195
&@@ 195
bed@@ 194
ust 194
fal@@ 193
Mal@@ 193
atur@@ 193
tor@@ 193
ager 192
formation 192
inger 192
hrend 192
vil@@ 192
Sei@@ 191
umin@@ 191
bis@@ 191
ales 190
evolution 190
under@@ 189
Ob@@ 189
wal@@ 186
erg@@ 186
of 185
ay 185
lege 184
müs@@ 184
öl@@ 184
progra@@ 183
extre@@ 183
ment@@ 183
forder@@ 182
rupp@@ 182
art 182
sto@@ 182
P 182
ild 181
un 181
US@@ 180
defin@@ 180
enor@@ 180
assi@@ 180
ia 179
ity 179
mos@@ 178
All 177
plan@@ 177
per 177
rel@@ 177
On@@ 177
chi@@ 175
ändert 175
Dan@@ 175
ry 174
o-@@ 174
ielen 174
Kun@@ 173
igi@@ 173
ad 173
rom 172
Milli@@ 172
glei@@ 171
Bri@@ 170
d-@@ 170
inspi@@ 170
häl@@ 170
Google 169
ons 169
gene@@ 168
oper@@ 168
pri@@ 168
V 168
gener@@ 168
Uni@@ 167
DNA 167
fantas@@ 167
Plan@@ 167
tisti@@ 166
Chris 166
klär@@ 166
Com@@ 166
ative 166
go@@ 166
schö@@ 165
inves@@ 165
volution 165
Proble@@ 165
— 164
fort@@ 164
einzi@@ 163
O 163
imp@@ 163
kön@@ 163
hy@@ 162
War@@ 162
ash@@ 162
ide@@ 162
ump@@ 162
ihr@@ 161
tional 160
alax@@ 160
HI@@ 160
ves 160
dra@@ 159
not@@ 159
ed@@ 158
ator 158
ters 158
cks 158
ane 158
r. 158
tit@@ 158
dem@@ 157
glaub@@ 157
ause 157
Wis@@ 156
18@@ 156
Spra@@ 156
ce 155
flu@@ 155
form 155
glau@@ 155
wit@@ 154
stand@@ 154
test 154
200 154
sm@@ 154
such 153
sych@@ 153
500 153
ama 153
mat@@ 152
amera 152
lö@@ 152
John 152
ßer@@ 152
dent 152
zieh@@ 151
amer@@ 151
David 151
agn@@ 150
ftware 150
fil@@ 150
fle@@ 150
eck 150
0-@@ 150
rise 150
El@@ 149
ritten 149
nei@@ 149
uni@@ 149
Musi@@ 149
ück 149
L 148
ils 148
ses 148
stu@@ 148
tere 147
ther@@ 147
sig@@ 146
ahr 146
ca@@ 146
istan 146
sex@@ 144
Am@@ 144
nam@@ 143
regi@@ 143
ats@@ 143
trag 143
emo@@ 143
äm@@ 142
far@@ 142
don 142
Sh@@ 141
ki@@ 141
vir@@ 141
ci@@ 141
kin@@ 141
Exper@@ 141
Flu@@ 140
ole 140
Lon@@ 138
ore 138
Gem@@ 137
läs@@ 137
Af@@ 136
belie@@ 136
Chr@@ 136
ban@@ 135
pon@@ 135
will@@ 135
inner@@ 135
dy 135
transp@@ 134
wei 134
pen@@ 133
Chin@@ 133
y-@@ 133
aly@@ 133
H 133
pre@@ 132
11 131
sum@@ 131
ision 131
psych@@ 131
ton@@ 131
dy@@ 130
system@@ 130
vidu@@ 130
lose 130
Antwor@@ 130
gar@@ 130
alls 129
utter 129
leg@@ 129
land@@ 129
Gesell@@ 128
typ@@ 128
sequ@@ 128
ument 127
ade 126
intelli@@ 126
flo@@ 126
bedeu@@ 126
ulation 126
Informa@@ 125
tradi@@ 125
ans@@ 124
Leben@@ 124
tas@@ 124
chem@@ 123
Erfahr@@ 123
Jap@@ 123
op 123
Vi@@ 123
näch@@ 122
gehör@@ 121
bat@@ 121
R 121
ath@@ 120
senschaf@@ 120
ese 120
abi@@ 120
agt 120
del@@ 120
DN@@ 119
finan@@ 119
lob@@ 118
ital 118
Gro@@ 118
rate 118
ow 117
Pe@@ 117
obs 117
Con@@ 116
wur@@ 116
chan@@ 116
utzen 116
onder@@ 116
Ti@@ 116
ve@@ 115
ot 115
enter 115
same 114
ren@@ 114
uten 114
tation 114
reg@@ 113
F 113
ty 112
ins@@ 112
dimen@@ 112
go 111
E 111
bur@@ 111
mark@@ 111
Afri@@ 110
dings 110
bracht 109
ld 109
nd 108
essen@@ 108
Pati@@ 108
top@@ 107
online 107
ächlich 106
ly 106
kun@@ 106
mechan@@ 106
physi@@ 106
id 106
priv@@ 106
mag@@ 105
Do@@ 105
eng@@ 105
met@@ 104
under 104
bot 104
pres@@ 104
fur@@ 104
th 104
Milliar@@ 104
ack 103
oot 103
w 102
ling 102
hel@@ 102
äter 102
desig@@ 102
tar@@ 102
Mö@@ 101
K 101
bot@@ 101
lis@@ 100
Gebäu@@ 100
okay 99
mathema@@ 99
ord 99
zur@@ 99
our 99
text 99
ams 98
ames 98
mach@@ 98
obach@@ 97
fün@@ 97
Wit@@ 97
Din@@ 97
keiten 97
gestell@@ 97
oph@@ 97
do 97
f-@@ 96
up@@ 96
ol 96
ps 96
mul@@ 96
ws 95
religi@@ 95
ograph@@ 95
stem 95
N 94
av@@ 94
individu@@ 94
X@@ 94
Fra@@ 93
exp@@ 93
ents 93
gst 93
ets 93
indu@@ 92
osp@@ 92
sc@@ 92
Gre@@ 92
ood 92
som@@ 92
ue 92
ool 91
W 91
bor@@ 90
Sub@@ 90
ule 90
dur@@ 90
hand 90
demo@@ 89
cool 89
Stad@@ 89
ll 89
inten@@ 88
kes 88
ost 88
pos@@ 88
Joh@@ 87
anti@@ 87
pass@@ 87
$ 87
igh@@ 87
pan@@ 86
normal 85
fig@@ 85
pu@@ 85
the 85
eigent@@ 85
dd@@ 85
Eu@@ 85
wa 84
mol@@ 84
ple@@ 84
oc@@ 84
technolog@@ 84
verschie@@ 84
Got@@ 84
eten 84
ick 84
bro@@ 84
amp 84
ings 83
inst@@ 83
fron@@ 83
ca 83
lik@@ 83
ear@@ 82
vie@@ 82
nal 82
these 82
win 81
ies 81
site 81
top 81
Ok@@ 81
use 80
organ@@ 80
ong 80
verschieden@@ 80
ates 80
wom@@ 80
rec@@ 79
prof@@ 79
ini@@ 78
funk@@ 78
abor@@ 78
identi@@ 78
gro@@ 78
old 78
oun@@ 77
che@@ 77
industr@@ 77
lic@@ 77
experim@@ 77
abei 76
on-@@ 76
The 76
ors 76
spe@@ 76
Organ@@ 76
my 75
pot@@ 74
nah@@ 74
trans@@ 74
alle@@ 74
book 74
ämp@@ 73
ands 73
aft 73
Ide@@ 72
hist@@ 72
by 71
ogni@@ 71
low 71
publi@@ 70
flä@@ 70
systems 70
chnologie 69
evol@@ 69
aga@@ 69
ends 69
sur@@ 69
ßlich 68
king 68
than 67
ential 67
ogar 67
hat@@ 67
ball 67
energ@@ 67
person@@ 67
ny 67
sub@@ 66
how 66
vern@@ 66
allen@@ 65
besonder@@ 65
dom@@ 65
kunft 65
thei@@ 64
van@@ 64
eting 64
ill 64
ok 64
ox@@ 64
wahrschein@@ 63
fundament@@ 63
ey@@ 63
Zus@@ 62
ordin@@ 62
here 62
ther 62
materi@@ 61
ome@@ 61
Yor@@ 61
proble@@ 61
ource 60
World 60
gewöh@@ 60
fang 59
ats 59
woll@@ 59
serv@@ 59
lar@@ 59
ward 59
senschaft 59
hu@@ 59
Geschi@@ 59
änder 59
mil@@ 59
char@@ 58
fir@@ 58
intel@@ 58
ence 57
ani@@ 57
dge 56
hor@@ 56
col@@ 56
til 55
material 55
dat@@ 55
” 55
Wh@@ 55
innov@@ 55
ise 55
get 54
wat@@ 54
X 54
U 54
Q@@ 54
ic 54
real 54
ders 53
ory 53
scho@@ 53
sil@@ 53
ago 53
vel 53
neur@@ 53
ney 52
my@@ 52
ress 52
ble 52
unkt 51
wn 51
view 50
Go@@ 50
hig@@ 50
staun@@ 50
we 49
ble@@ 49
ire 49
ak 48
hau@@ 48
its 48
big 48
half 48
vel@@ 48
ope 48
ous@@ 48
wick@@ 48
indi@@ 47
val@@ 47
invol@@ 47
human@@ 47
were 47
forma@@ 47
can@@ 47
ke@@ 47
ining 47
é@@ 46
set@@ 46
ander 45
Rob@@ 45
super@@ 45
met 45
uri@@ 44
gh 44
ograp@@ 44
nu@@ 44
ace 44
see 44
ones 43
fun@@ 43
cle@@ 43
cy 43
nec@@ 43
ars 43
ju@@ 42
bir@@ 42
ush 42
back 42
problem 42
ware 42
ih@@ 41
Leu@@ 41
ral 41
é 41
ary 41
iden@@ 40
ament@@ 40
was@@ 40
can 40
vo@@ 40
.. 40
ots 39
are@@ 39
still 39
line 39
inc@@ 39
techni@@ 39
ath 39
num@@ 39
J 39
aver@@ 38
felt 38
archit@@ 38
live 38
Mäd@@ 38
car@@ 37
atten@@ 37
extra@@ 37
vice 37
impro@@ 36
ics 36
cho@@ 36
› 36
‹ 36
bal@@ 36
blu@@ 36
prin@@ 36
cir@@ 36
pul@@ 36
tell@@ 36
qui@@ 36
wischen 36
’ 35
over 35
then 35
ergie 35
cl@@ 35
tic@@ 35
ine@@ 35
iness 35
ash 35
pop@@ 35
face 35
aps 34
… 34
lear@@ 34
part@@ 34
Zusam@@ 34
global 32
ama@@ 32
tom 32
con@@ 32
zusam@@ 32
genom@@ 31
cu@@ 31
int 31
red 31
cal 31
vari@@ 31
right 31
ding 31
pat@@ 31
bit 31
national 31
Bec@@ 30
ish@@ 30
Y 30
ond 30
run@@ 30
bus@@ 30
chni@@ 29
design 29
econ@@ 29
orig@@ 29
way 29
ologi@@ 29
for 29
ug 29
phone 29
Goog@@ 28
tle 28
Q 28
ult 28
Yeah 28
Earth 28
Dies@@ 28
open 27
bab@@ 27
gefähr 27
milli@@ 27
cul@@ 27
ement 27
ink 27
ads 26
cre@@ 26
ax@@ 26
tain@@ 26
° 26
computer 26
yo@@ 26
well 26
U.@@ 26
squ@@ 26
‘ 26
fo@@ 25
ols 25
avi@@ 25
anim@@ 25
kind 25
outh 25
verse 25
ziem@@ 25
tors 24
ye@@ 24
ject 24
ness 24
dep@@ 24
audi@@ 24
any@@ 24
seri@@ 23
Z 23
up 23
able 23
chil@@ 23
American 23
ering 23
kno@@ 23
eicht 23
person 22
air@@ 22
q@@ 22
ail@@ 22
These 22
liter@@ 22
equ@@ 22
ual 22
ury 22
ice 22
U.S. 22
dec@@ 21
β@@ 21
after 21
á@@ 21
ameri@@ 21
rep@@ 21
ving 21
had 21
inv@@ 21
part 20
set 20
more 20
,000 20
mes@@ 20
team 20
ep 20
dom 20
fut@@ 20
com@@ 20
rap@@ 20
´ 20
gets 20
ular 20
cor@@ 19
enn 19
any 19
í@@ 19
ce@@ 19
ämlich 19
pur@@ 19
ollars 19
expl@@ 19
ou 19
ting 18
tran@@ 18
simple 18
gre@@ 18
ines 18
½ 18
cial 18
= 18
blem 18
unity 18
big@@ 18
hon@@ 17
tain 17
back@@ 17
viol@@ 17
+ 17
que 17
put 17
famili@@ 17
cy@@ 17
jour@@ 17
school 17
lec@@ 17
smar@@ 17
day 17
interes@@ 17
tis@@ 16
pati@@ 16
dic@@ 16
compu@@ 16
ough@@ 16
kers 16
cer 16
cer@@ 16
sli@@ 16
field 16
chnolog@@ 16
As 16
amilie 16
S. 16
ces 15
Heraus@@ 15
ties 15
ish 15
sensch@@ 15
you 15
ners 15
ç@@ 15
differ@@ 15
thers 15
ical 15
ous 15
time 15
ight 14
haupt 14
prot@@ 14
mem@@ 14
stor@@ 14
sho@@ 14
let 14
ct 14
nee@@ 14
bec@@ 14
cou@@ 14
ape 14
coun@@ 14
respon@@ 14
side 14
but 14
lea@@ 13
ally 13
ments 13
ouse 13
² 13
thy 13
level 13
bers 13
ound 13
ó@@ 13
video 13
ite 13
car 13
sort 13
Ye@@ 13
bac@@ 12
ction 12
hum@@ 12
0,000 12
too 12
hät@@ 12
lon@@ 12
play 12
xt 12
illion 12
now 12
fac@@ 12
say 12
vide@@ 12
@ 12
last 12
cos@@ 11
ety 11
work 11
technologi@@ 11
è@@ 11
very 11
out 11
out@@ 11
rong 11
try 11
moment 11
Sich@@ 11
ture 11
‟ 10
job 10
à 10
One 10
She 10
read@@ 10
No 10
ations 10
cr@@ 10
alk 10
not 10
We 10
ple 10
tic 10
mental 10
key 10
duc@@ 10
‚ 10
thr@@ 10
boo@@ 10
Now 10
United 9
wards 9
ely 9
wers 9
ough 9
cle 9
ddle 9
ology 9
cing 9
ning 9
sts 9
supp@@ 9
cra@@ 9
soci@@ 9
light 9
ples 9
imag@@ 9
pla@@ 9
‒ 9
sec@@ 9
India 9
ways 8
á 8
rest 8
ñ@@ 8
space 8
water 8
It 8
fund@@ 8
ree 8
TE@@ 8
allo@@ 8
ution 8
ases 8
amil@@ 8
order 8
shi@@ 8
America 8
high 8
) 8
j 8
ima@@ 8
ily 8
Ear@@ 8
You 8
population 8
dren 8
life 8
ating 8
phot@@ 8
cking 8
cop@@ 8
no 8
mic@@ 7
night 7
name 7
My 7
cri@@ 7
tics 7
tell 7
unch 7
This 7
thin@@ 7
reas@@ 7
ated 7
sing 7
range 7
ã@@ 7
if 7
He 7
poin@@ 7
port@@ 7
repres@@ 7
ality 6
very@@ 6
has 6
tual 6
love 6
Publi@@ 6
ould 6
ature 6
cli@@ 6
ship 6
loo@@ 6
evi@@ 6
ird 6
diff@@ 6
relation@@ 6
lot 6
show 6
stud@@ 6
front 6
row 6
them@@ 6
eing 6
start 6
body 6
act 6
ü 6
cal@@ 6
down 6
his 6
acc@@ 6
# 6
cent@@ 6
care 5
says 5
high@@ 5
planet 5
won 5
ect 5
ground 5
appe@@ 5
power 5
^ 5
him 5
unds 5
tions 5
inst 5
ross 5
exper@@ 5
own 5
wee@@ 5
power@@ 5
quot@@ 5
tici@@ 5
 5
­ 5
è 4
jo@@ 4
table 4
ever 4
fic 4
β 4
ned 4
 4
issu@@ 4
wh@@ 4
ues 4
grou@@ 4
ght 4
have 4
ö 4
chit@@ 4
mate 4
began 4
ted 4
cess 4
cour@@ 4
What 4
If 4
ths 4
jects 4
far 4
room 4
child 4
shar@@ 4
ici@@ 4
aper 4
bad 4
into 4
sed 4
ences 4
maj@@ 4
q 4
cell@@ 4
air 4
fly 4
conc@@ 4
human 4
kill@@ 4
tical 4
God 3
ready 3
sing@@ 3
where 3
thou@@ 3
media 3
ged 3
want 3
ural 3
ë@@ 3
amoun@@ 3
Americ@@ 3
look 3
When 3
How 3
fic@@ 3
perf@@ 3
wri@@ 3
your@@ 3
self-@@ 3
piec@@ 3
something 3
come 3
dn 3
Amer@@ 3
ć 3
less 3
Just 3
food 3
ced 3
shows 3
There 3
technology 3
Here 3
happ@@ 3
model 3
walk 3
Do 3
cancer 3
People 3
perc@@ 3
Africa 3
ours 3
take 3
that 3
used 3
times 3
elec@@ 3
€ 3
over@@ 3
To 3
ease 3
That 2
with 2
cept 2
wing 2
ø@@ 2
possible 2
seen 2
direc@@ 2
million 2
your 2
answer 2
But 2
built 2
two 2
ó 2
feel 2
data 2
play@@ 2
kinds 2
around 2
uses 2
 2
ful 2
For 2
house 2
dence 2
doc@@ 2
state 2
í 2
new 2
ists 2
ked 2
sound 2
information 2
comes 2
 2
cess@@ 2
head 2
ê@@ 2
fish 2
books 2
spec@@ 2
¥ 2
comp@@ 2
ä 2
™ 2
value 2
Well 2
ved 2
world 2
viron@@ 2
done 2
little 2
( 2
least 2
give 2
reason 2
story 2
lives 2
never 2
came 2
ghts 2
Á@@ 2
ability 2
led 2
engine@@ 2
And 2
ful@@ 2
run 2
only 2
stop 2
fore 1
struc@@ 1
else 1
share 1
ween 1
Å@@ 1
condi@@ 1
piece 1
Ä 1
figure 1
education 1
game 1
feel@@ 1
about 1
incredi@@ 1
Č@@ 1
esn 1
sions 1
At 1
ying 1
They 1
econom@@ 1
commun@@ 1
ought 1
® 1
ú@@ 1
best 1
simp@@ 1
к@@ 1
stead 1
ask 1
self 1
plac@@ 1
most 1
lity 1
Or 1
pris@@ 1
tice 1
did 1
hear 1
going 1
beautiful 1
mind 1
œ@@ 1
ë 1
dollars 1
Ü 1
who 1
complex 1
yourself 1
`@@ 1
must 1
clear 1
got 1
point 1
city 1
apos@@ 1
comm@@ 1
woman 1
bility 1
make 1
appro@@ 1
twor@@ 1
﻿ 1
ī@@ 1
moving 1
through 1
find 1
oment 1
better 1
hund@@ 1
bed 1
business 1
clos@@ 1
think 1
force 1
year@@ 1
ý@@ 1
Ű@@ 1
pic@@ 1
× 1
other 1
area 1
eful 1
single 1
learning 1
doing 1
ähr 1
sci@@ 1
ined 1
every 1
Let 1
electri@@ 1
States 1
home 1
¶ 1
read 1
happy 1
just 1
ects 1
bring 1
public 1
` 1
good 1
billion 1
once 1
Ç@@ 1
friend 1
hope 1
works 1
first 1
© 1
working 1
size 1
ā@@ 1
some@@ 1
born 1
³ 1
à@@ 1
project 1
ching 1
É@@ 1
beau@@ 1
cap@@ 1
送 1
你 1
葱 1
finally 1
understand 1
they 1
eas@@ 1
thought 1
case 1
like 1
