, 121125
. 100884
the 78837
to 49875
a 49332
of 46286
and 44530
that 35268
in 33607
I 32142
is 26541
it 25279
you 25069
c@@ 23914
&apos;s 22589
we 21262
f@@ 18389
ed 18352
s 18152
in@@ 17633
And 17395
es 16586
this 16371
ing 16180
on 15457
p@@ 14645
e@@ 14229
&quot; 14157
s@@ 14060
y 13144
t@@ 12983
are 12751
h@@ 12655
o@@ 12434
m@@ 11945
was 11734
b@@ 11583
d@@ 11534
for 11366
al 10980
have 10821
re@@ 10647
a@@ 10435
t 10417
they 10355
-- 10291
w@@ 10226
an 10223
can 9860
en@@ 9722
with 9576
g@@ 9411
at 9253
an@@ 9095
as 9056
? 9051
one 9008
i@@ 8916
l@@ 8871
or 8819
ar@@ 8759
all 8750
what 8734
So 8724
ly 8674
-@@ 8629
&apos;t 8605
y@@ 8592
about 8513
be 8428
at@@ 8406
e 8112
v@@ 7848
de@@ 7795
li@@ 7744
u@@ 7421
con@@ 7335
ch@@ 7265
not 7250
ac@@ 7205
: 7180
ti@@ 7178
pro@@ 7150
al@@ 7140
on@@ 7074
or@@ 7054
un@@ 7042
ma@@ 7019
do 6894
there 6735
is@@ 6690
&apos;re 6661
th@@ 6474
It 6425
n@@ 6424
like 6411
my 6341
ro@@ 6317
d 6265
di@@ 6247
from 6221
st@@ 6212
people 6189
S@@ 6126
ts 6037
so 5911
r@@ 5876
out 5757
our 5748
as@@ 5626
vi@@ 5595
but 5572
op@@ 5515
tion 5504
le@@ 5501
ce 5442
A@@ 5428
ds 5405
le 5370
me 5353
ve 5329
ic@@ 5317
ul@@ 5289
ri@@ 5269
te 5249
very 5248
just 5247
ec@@ 5207
ra@@ 5174
ation 5074
The 5052
ent 5048
We 5045
if 4968
But 4945
C@@ 4914
er 4888
ex@@ 4882
mo@@ 4872
he 4859
these 4849
el@@ 4818
se@@ 4809
up 4709
h 4698
by 4686
us 4685
ap@@ 4625
know 4613
going 4560
them 4547
l 4538
si@@ 4523
n 4462
ou@@ 4455
ver@@ 4422
ur@@ 4420
more 4375
su@@ 4365
res@@ 4351
when 4294
it@@ 4267
ting 4246
k@@ 4233
p 4227
em@@ 4225
thing 4208
had 4207
think 4188
because 4183
er@@ 4143
il@@ 4138
o 4122
am@@ 4093
k 4091
get 4059
es@@ 4054
see 4021
how 4016
lo@@ 3972
which 3959
ar 3944
ge 3926
your 3919
their 3918
who 3912
ate 3903
M@@ 3899
j@@ 3894
were 3888
ir@@ 3886
ta@@ 3880
really 3849
O@@ 3829
D@@ 3822
king 3733
ci@@ 3731
would 3718
th 3681
os@@ 3679
m 3658
H@@ 3643
here 3631
&apos;ve 3567
time 3545
way 3541
for@@ 3520
B@@ 3504
ers 3493
where 3467
to@@ 3425
You 3424
se 3416
world 3413
im@@ 3413
en 3400
&apos;m 3400
sp@@ 3400
sa@@ 3389
E@@ 3372
ally 3362
has 3361
then 3352
ter@@ 3345
This 3323
om@@ 3276
into 3272
per@@ 3271
ure 3243
ol@@ 3243
don 3226
ad@@ 3213
wor@@ 3212
dis@@ 3206
some 3187
able 3185
par@@ 3173
ad 3169
ity 3164
qu@@ 3156
te@@ 3155
bo@@ 3133
actually 3101
sh@@ 3089
z@@ 3085
me@@ 3082
ent@@ 3059
T@@ 3055
ks 3050
ch 3032
be@@ 3030
ence 2988
years 2985
go 2969
ely 2965
now 2938
ot@@ 2933
things 2933
other 2903
P@@ 2889
et@@ 2876
ine 2876
G@@ 2875
Now 2872
ne@@ 2866
will 2861
pl@@ 2856
co@@ 2849
et 2816
au@@ 2813
1@@ 2794
ted 2791
make 2786
They 2776
want 2771
ents 2769
ter 2757
comp@@ 2751
been 2717
g 2711
cre@@ 2695
F@@ 2694
could 2687
ab@@ 2656
ther 2641
tri@@ 2591
w 2549
N@@ 2529
our@@ 2524
fi@@ 2521
tra@@ 2502
us@@ 2488
R@@ 2484
right 2480
said 2479
come 2461
something 2458
ig@@ 2454
W@@ 2433
than 2432
ving 2428
most 2406
ck@@ 2401
c 2400
ated 2398
tur@@ 2390
ous 2388
gu@@ 2372
ph@@ 2363
ic 2357
tions 2353
po@@ 2314
those 2312
much 2289
no 2279
little 2269
ding 2266
work 2261
pre@@ 2258
ment 2252
ag@@ 2250
back 2245
I@@ 2234
new 2224
stu@@ 2208
two 2206
also 2192
tr@@ 2191
tic@@ 2189
age 2189
gi@@ 2187
gh@@ 2187
first 2183
got 2176
J@@ 2170
L@@ 2165
say 2152
ni@@ 2150
der 2149
est 2145
ked 2143
ies 2142
♫ 2142
pa@@ 2130
old 2129
we@@ 2127
look 2114
That 2107
de 2105
ron@@ 2103
end 2100
his 2100
cl@@ 2096
ut@@ 2093
ans 2092
rec@@ 2087
x@@ 2082
ty 2078
bi@@ 2063
over 2058
In 2052
life 2050
ys 2046
ble 2046
What 2036
la@@ 2029
no@@ 2020
body 2020
ons 2013
her 1975
ful 1969
take 1968
ves 1940
only 1936
many 1936
she 1931
ing@@ 1921
x 1915
do@@ 1915
A 1912
mon@@ 1906
tive 1902
lot 1891
ali@@ 1889
kind 1885
ms 1881
need 1877
Th@@ 1876
go@@ 1876
even 1875
day 1868
ying 1836
its 1816
any 1804
ws 1794
ture 1788
als 1784
um@@ 1764
down 1756
around 1754
There 1752
ght 1742
coun@@ 1740
and@@ 1739
pres@@ 1738
happ@@ 1730
fe@@ 1723
use 1722
du@@ 1715
every@@ 1714
good 1707
did 1702
ded 1700
car@@ 1698
so@@ 1693
ase 1691
gr@@ 1689
wh@@ 1688
tu@@ 1671
&apos;ll 1671
he@@ 1670
ved 1669
com@@ 1664
tic 1663
different 1663
bu@@ 1656
pe@@ 1653
ast 1639
try 1638
ber 1632
through 1632
wi@@ 1629
ant 1623
; 1615
min@@ 1612
ei@@ 1605
sur@@ 1601
0@@ 1600
fa@@ 1599
ating 1585
ha@@ 1578
enti@@ 1573
every 1573
i 1572
He 1571
ear@@ 1569
ties 1565
br@@ 1563
rel@@ 1560
ob@@ 1557
oc@@ 1554
sc@@ 1550
same 1542
pr@@ 1540
cal 1538
sen@@ 1534
ose 1534
war@@ 1532
ck 1528
ay 1526
being 1519
Well 1518
mat@@ 1518
inter@@ 1515
gro@@ 1509
K@@ 1501
sol@@ 1500
lu@@ 1498
ten@@ 1492
fin@@ 1489
doing 1486
lear@@ 1483
gen@@ 1482
side 1481
any@@ 1477
sho@@ 1477
put 1474
some@@ 1466
ning 1459
og@@ 1443
Y@@ 1442
the@@ 1435
gra@@ 1432
ces 1430
sci@@ 1428
If 1426
ru@@ 1426
self 1425
ze 1415
el 1414
pi@@ 1413
des@@ 1411
ey 1409
am 1405
ood 1405
f 1401
ge@@ 1397
und@@ 1395
ess@@ 1389
ok 1387
red 1387
ary 1385
ors 1383
called 1382
chan@@ 1381
ory 1373
2@@ 1365
change 1356
ep@@ 1353
spec@@ 1343
qui@@ 1343
ough 1342
ned 1341
col@@ 1341
bas@@ 1339
tly 1338
percent 1337
ever 1337
three 1331
ima@@ 1329
da@@ 1329
ame 1320
ke 1311
ell@@ 1307
den@@ 1304
talk 1302
made 1298
buil@@ 1297
&apos;d 1283
sy@@ 1272
human 1270
.@@ 1265
soci@@ 1261
well 1261
har@@ 1261
der@@ 1259
tre@@ 1257
plan@@ 1256
ist@@ 1250
tional 1246
ect 1238
fact 1230
ven 1229
ates 1229
ist 1226
ance 1224
tell 1222
find 1220
let 1218
year 1218
ue 1217
why 1210
ome 1209
ations 1203
ind 1194
oll@@ 1193
st 1191
low 1190
ga@@ 1190
ill@@ 1188
tal@@ 1187
uni@@ 1180
tro@@ 1179
cor@@ 1170
all@@ 1170
started 1167
ber@@ 1160
idea 1160
own 1156
TED 1155
mi@@ 1155
ver 1154
today 1146
kes 1134
gre@@ 1130
didn 1128
lity 1126
ft 1125
om 1122
medi@@ 1120
pla@@ 1117
ters 1117
pri@@ 1115
after 1114
ach@@ 1110
with@@ 1109
used 1108
shi@@ 1108
man@@ 1106
better 1104
should 1103
last 1102
loo@@ 1101
big 1099
great 1099
course 1096
eri@@ 1094
times 1092
b 1088
ild 1088
ands 1088
went 1087
hear@@ 1086
hi@@ 1086
id 1083
5 1081
might 1080
ev@@ 1078
,000 1078
cul@@ 1077
na@@ 1075
place 1073
ago 1069
um 1069
sion 1068
off 1068
les 1068
sm@@ 1067
can@@ 1067
mar@@ 1064
thought 1061
mem@@ 1060
wing 1059
ste@@ 1054
tion@@ 1052
problem 1049
cou@@ 1048
gl@@ 1047
ass@@ 1045
brain 1045
story 1045
give 1044
before 1044
bab@@ 1044
important 1041
und 1040
tiv@@ 1038
ins 1036
ese 1036
never 1032
ings 1030
str@@ 1030
wer@@ 1029
bot@@ 1028
ran@@ 1023
mis@@ 1018
happen@@ 1017
ust 1015
part 1015
tin@@ 1014
ger 1014
Thank 1009
another 1006
bl@@ 1005
num@@ 1005
ten 1004
lea@@ 999
him 996
bit 996
ish 996
still 995
together 995
U@@ 993
ep 989
man 988
wn 988
ice 988
il 987
sti@@ 986
Wh@@ 986
pic@@ 984
water 982
ace 981
next 980
isi@@ 980
few 980
duc@@ 979
inv@@ 978
ges 971
kno@@ 971
ens 969
came 969
0 967
start 964
beg@@ 963
found 958
lic@@ 958
19@@ 958
ous@@ 957
cess 954
system 953
ros@@ 953
interes@@ 951
does 951
wa@@ 949
fri@@ 947
show 945
technology 944
less 938
again 933
exp@@ 932
Le@@ 930
nec@@ 930
ell 926
wer 925
ari@@ 925
sk@@ 923
possi@@ 920
ke@@ 919
cri@@ 919
simp@@ 916
fac@@ 914
ry 911
3@@ 908
cy 908
cent@@ 907
each 901
How 901
eff@@ 900
between 900
comes 899
ns 896
&apos; 895
ost 895
od 894
When 893
poli@@ 893
ps 892
too 892
mean 887
under@@ 880
eng@@ 880
iz@@ 878
produc@@ 877
ir 876
ere 875
ybe 874
cer@@ 873
looking 873
incre@@ 872
nat@@ 870
question 869
ically 866
4@@ 865
gs 864
beh@@ 862
thin@@ 859
long 859
data 858
light 857
oo@@ 856
gener@@ 851
bre@@ 851
ort 850
ject 849
cap@@ 847
ality 845
ess 844
love 838
mer@@ 834
vol@@ 834
lan@@ 832
point 832
Talk 831
V@@ 830
example 830
mus@@ 828
lar@@ 826
St@@ 825
heal@@ 824
sort 824
secon@@ 824
ects 823
yp@@ 823
women 822
whi@@ 821
ser@@ 821
zed 820
rap@@ 820
ars 818
real 817
live 816
fami@@ 816
done 816
wanted 816
econom@@ 814
doesn 813
10 810
working 805
5@@ 805
ach 805
8@@ 805
Because 804
children 803
trying 800
spe@@ 797
school 796
read@@ 796
tical 796
whole 794
dn 793
away 791
ited 790
commun@@ 788
dic@@ 788
selves 787
stor@@ 786
struc@@ 785
bes@@ 782
abi@@ 782
cra@@ 781
formation 780
ack 780
e-@@ 777
ness 777
always 776
believe 776
face 775
lec@@ 774
may 774
Subtitles 772
Transcript 772
organ@@ 769
ater 768
develop@@ 766
ale 766
understand 766
ris@@ 765
reas@@ 765
help 765
son@@ 764
call 764
power 763
ges@@ 763
igh@@ 763
pt 760
ne 758
eas@@ 758
app@@ 758
hal@@ 751
act 750
ular 749
olog@@ 748
ide@@ 747
using 746
ard 746
experi@@ 745
person 744
dy 744
out@@ 742
Afri@@ 742
des 741
form 740
design 739
mark@@ 738
ask 737
ass 736
hum@@ 736
r 735
bor@@ 735
ll 733
star@@ 733
million 733
ution 733
iness 733
line 732
cur@@ 730
feel 727
compu@@ 727
mor@@ 725
coming 725
dri@@ 724
6@@ 724
cle@@ 723
four 720
kids 720
ff 719
city 719
! 718
trans@@ 716
get@@ 715
re 715
sta@@ 713
bus@@ 712
supp@@ 709
play 709
off@@ 708
hig@@ 708
ging 705
fut@@ 704
ans@@ 704
val@@ 702
9@@ 701
ce@@ 700
pon@@ 700
let@@ 697
ots 693
sub@@ 692
erg@@ 691
ff@@ 691
my@@ 686
2 685
7@@ 685
ong 681
men 673
ble@@ 671
her@@ 668
mal 665
thou@@ 662
ets 660
inn@@ 660
del@@ 660
tor 651
ther@@ 650
tru@@ 645
nor@@ 644
pos@@ 644
avi@@ 644
ologi@@ 642
op 641
vie@@ 638
ow 637
stand@@ 636
ger@@ 636
por@@ 628
tel@@ 627
fl@@ 626
fol@@ 626
sit@@ 622
pp@@ 621
ight 617
physi@@ 616
00 616
sel@@ 615
vis@@ 615
Un@@ 611
In@@ 611
lin@@ 609
ways 608
ie 607
comm@@ 606
hel@@ 603
ie@@ 602
An@@ 602
est@@ 602
assi@@ 599
sig@@ 596
men@@ 592
desig@@ 587
art 583
ative 579
ung 574
blo@@ 574
ast@@ 573
differ@@ 572
20 561
glob@@ 561
ef@@ 560
ment@@ 558
1 557
hr@@ 553
land 553
oment 550
exper@@ 548
bra@@ 546
ack@@ 545
wis@@ 545
ken 543
ak@@ 542
Indi@@ 541
ia 539
ree 533
ll@@ 529
den 525
50 525
No@@ 523
Chin@@ 523
Mar@@ 521
stre@@ 519
K 519
tem@@ 519
tim@@ 516
ein@@ 512
posi@@ 512
illi@@ 509
rop@@ 509
’ 508
mit@@ 507
En@@ 507
fra@@ 506
son 506
ori@@ 506
8 504
tell@@ 503
ah 501
evol@@ 498
4 494
stra@@ 488
ubli@@ 487
Ma@@ 487
hu@@ 486
ub@@ 481
per 480
ven@@ 479
dies 479
aff@@ 476
onder@@ 476
eh@@ 476
20@@ 470
New 470
vel@@ 464
ques@@ 461
illion 458
fe 457
mm@@ 454
3 453
ster 453
Al@@ 452
ob 448
nam@@ 447
ner 447
dr@@ 446
... 446
S 446
nov@@ 444
200@@ 443
vers@@ 443
bri@@ 440
ho@@ 438
os 437
ton 432
dar@@ 430
fre@@ 429
mer 429
fer@@ 427
af@@ 427
Internet 426
del 425
&#93; 422
&#91; 421
30 420
ank 416
ut 415
6 413
bec@@ 413
stem@@ 413
Li@@ 411
net@@ 411
diff@@ 411
ord@@ 410
ur 409
wom@@ 401
aga@@ 398
7 397
9 395
sch@@ 390
port@@ 390
em 389
dre@@ 384
ple@@ 382
spi@@ 379
100 377
dru@@ 376
war 375
fu@@ 374
Ar@@ 373
arti@@ 372
mp@@ 370
bar@@ 369
fir@@ 369
dur@@ 369
Ameri@@ 368
Ok@@ 365
sor@@ 363
dan@@ 363
Ch@@ 361
eg@@ 359
un 358
ah@@ 357
dig@@ 355
usi@@ 355
end@@ 355
ich 348
Re@@ 346
u 344
wei@@ 341
V 339
ok@@ 338
tle 338
elt 337
D 337
pu@@ 335
belie@@ 333
amp@@ 332
ben@@ 331
ld 327
alk 325
— 319
int 316
chn@@ 316
win@@ 315
ker 308
oh@@ 308
vor@@ 307
lit@@ 306
ople 305
tern 303
Wor@@ 300
chi@@ 299
eld 298
year@@ 297
ches 296
eu@@ 294
aus@@ 294
alis@@ 291
♪ 290
ye@@ 287
bel@@ 284
gen 277
hol@@ 275
Mo@@ 274
Au@@ 271
ole 271
Se@@ 271
ft@@ 269
wan@@ 268
xt 267
Par@@ 261
ause 261
fan@@ 255
rit@@ 255
perc@@ 253
hab@@ 252
ich@@ 252
M 251
T 251
Na@@ 250
die 249
C 248
Di@@ 248
ung@@ 247
ier 245
z 245
Ph@@ 238
Z@@ 237
passi@@ 237
ki@@ 236
los@@ 236
lau@@ 236
alls 234
ern 234
Pro@@ 231
very@@ 230
stand 228
Su@@ 227
P 227
spre@@ 226
Ne@@ 226
ste 222
Ge@@ 221
da 221
eter 217
dern 213
B 212
set@@ 212
ein 212
Be@@ 212
G 212
ster@@ 208
Sp@@ 206
Mi@@ 203
ati@@ 203
lli@@ 202
O 200
im 199
stat@@ 198
mit 196
mu@@ 195
ade 195
fore 194
,@@ 194
Com@@ 193
Bi@@ 191
thr@@ 190
bin@@ 189
ould 188
call@@ 187
zer@@ 186
devel@@ 184
stru@@ 184
stem 183
TE@@ 179
For@@ 179
Bu@@ 177
R 172
/ 171
som@@ 171
tually 170
Ex@@ 170
Po@@ 170
Ta@@ 168
So@@ 165
kl@@ 165
Ab@@ 164
L 163
import@@ 162
Ger@@ 160
ert 160
hat@@ 157
econ@@ 155
Ver@@ 153
chil@@ 152
gh 150
Sch@@ 149
bein@@ 148
Ri@@ 146
gent@@ 146
H 146
zi@@ 144
ler 143
Mon@@ 141
Per@@ 141
We@@ 139
Je@@ 138
Univers@@ 135
ollar 134
net 133
rom 133
Gen@@ 133
wel@@ 131
ier@@ 131
zen 131
hei@@ 127
gan@@ 127
wo 127
E 126
ool 125
lob@@ 125
dat@@ 125
unter@@ 124
Sta@@ 122
gel@@ 122
$ 119
Ber@@ 119
Sy@@ 118
Man 118
cher 116
wir@@ 115
Br@@ 115
F 115
Te@@ 114
X@@ 114
Or@@ 114
neu@@ 113
Inter@@ 112
Me@@ 112
rie@@ 111
&apos;@@ 110
Fr@@ 108
Qu@@ 105
Medi@@ 105
Bil@@ 104
je@@ 101
uns 99
bt 96
ek@@ 96
Des@@ 96
Gr@@ 94
q 94
iel@@ 94
tes 92
cour@@ 92
ts@@ 90
- 88
bar 87
vor 86
cken 86
Min@@ 85
Sa@@ 84
Nat@@ 82
Ein@@ 80
ander@@ 80
Uni@@ 79
unk@@ 79
Dan@@ 79
Q@@ 78
W 75
versu@@ 74
ka 74
lt 73
Am@@ 72
N 70
Stu@@ 70
chen 69
v 68
000 68
ample 68
ken@@ 67
forma@@ 66
chnolog@@ 64
aten 62
dam@@ 61
alt 61
hin@@ 60
rank@@ 60
&@@ 60
ound 59
thei@@ 59
X 59
Also 59
Pl@@ 59
scri@@ 59
bil@@ 58
che 58
ami@@ 57
Fre@@ 56
Her@@ 55
ander 53
tit@@ 53
amm@@ 51
J 51
ysi@@ 50
script 49
ern@@ 48
q@@ 47
wa 46
War@@ 46
tz@@ 46
U 45
é@@ 44
uns@@ 43
Y 42
dren 41
ih@@ 41
Bei@@ 39
Art 38
Was 38
lung 38
ann 38
gut 37
é 35
“ 35
sen 35
quot@@ 34
” 34
dung 34
iel 33
au 33
Tran@@ 32
len 32
rei@@ 32
ou 32
sei@@ 32
lei@@ 32
allen 30
Q 30
+ 28
Kin@@ 28
technolog@@ 26
ehr@@ 25
Er@@ 24
Z 24
bet@@ 23
zu@@ 23
wen@@ 23
du 22
% 22
Bec@@ 22
bin 22
ig 21
titles 21
tel 21
nis@@ 21
ler@@ 21
gether 21
Mit@@ 20
nie 20
nis 20
Kon@@ 20
amen 19
enn 19
hat 19
ja 18
í@@ 18
nd 16
kan@@ 16
das 16
aus 16
gem@@ 16
unter 15
stell@@ 15
Sub@@ 15
Wis@@ 15
elle 15
á@@ 14
ç@@ 14
Ide@@ 13
aut 13
lie@@ 13
Milli@@ 13
iger 13
sten 12
olo@@ 12
# 12
Men@@ 12
lich@@ 12
… 12
sch 11
Rei@@ 11
ween 11
atz 11
apos@@ 11
@ 11
Wei@@ 10
esn 10
weil 10
wick@@ 10
Aus@@ 10
Fra@@ 10
nt 9
von 9
= 9
– 9
lus@@ 8
è@@ 8
ã@@ 8
erz@@ 8
ahr@@ 8
heit 8
kon@@ 8
eit 8
twor@@ 7
mei@@ 7
ende 7
beit 7
eine 7
wollen 7
á 7
ei 6
liche 6
ó@@ 6
dies@@ 6
Land 6
ben 6
eren 6
dem 6
Din@@ 6
Proz@@ 5
pf@@ 5
tet 5
lich 5
j 5
Es 5
Kre@@ 5
zur@@ 5
ñ@@ 4
è 4
hier 4
utz@@ 4
^ 4
cht 4
ats@@ 4
ehr 4
verst@@ 4
‘ 4
ö@@ 4
geh@@ 4
bis 4
fen 4
funk@@ 4
dass 4
sie 4
einer 4
zei@@ 3
immer 3
mir 3
isch 3
aber 3
cht@@ 3
sein 3
zu 3
assen 3
Um@@ 3
gend@@ 3
oren 3
Zu@@ 3
Problem 3
Zei@@ 3
oder 3
Nach@@ 3
à 3
Geh@@ 2
gung 2
ø@@ 2
â 2
 2
 2
) 2
ó 2
bei@@ 2
für 2
hin 2
́ 2
Wir@@ 2
í 2
besser 2
tung 2
ê@@ 2
tete 2
nach@@ 2
Regi@@ 2
ü@@ 2
ffen 2
ë 2
aum 2
tei@@ 2
nun 2
Sei@@ 2
² 2
Á@@ 2
Das 2
ä@@ 2
ù 1
einf@@ 1
esen 1
kom@@ 1
ë@@ 1
Å@@ 1
igen 1
det 1
wie 1
zt 1
Idee 1
asch@@ 1
gab 1
Ich 1
habe 1
Č@@ 1
onen 1
schi@@ 1
ï@@ 1
eigen@@ 1
doch 1
Geb@@ 1
º@@ 1
auf@@ 1
chti@@ 1
Tag 1
geb@@ 1
ahr 1
( 1
alles 1
utzen 1
ī@@ 1
noch 1
√ 1
± 1
nen@@ 1
nah@@ 1
scha@@ 1
bede@@ 1
blem 1
über@@ 1
Mö@@ 1
ù@@ 1
ć 1
ör@@ 1
ige 1
€ 1
.. 1
viel@@ 1
Ç@@ 1
bei 1
ā@@ 1
É@@ 1
送 1
你 1
葱 1
ös@@ 1
ische 1
mt 1
