, 121125
. 100343
the 78837
to 49873
a 46544
of 46286
and 43990
that 35268
in 32273
I 32142
is 26376
it 25279
you 25069
&apos;s 22589
we 21262
And 17395
this 16371
&quot; 14157
on 13811
ed 12612
was 11734
for 11366
are 11347
have 10821
ing 10536
they 10355
-- 10291
es 9791
c@@ 9765
with 9576
can 9492
at 9253
an 9076
? 9051
what 8734
So 8724
&apos;t 8605
as 8561
about 8513
be 8428
all 7683
s 7587
one 7517
in@@ 7506
or 7275
: 7180
y 7168
s@@ 7068
re@@ 6988
not 6957
do 6894
there 6735
p@@ 6663
&apos;re 6661
f@@ 6437
It 6425
like 6411
my 6341
from 6221
people 6189
so 5911
b@@ 5854
-@@ 5778
al 5773
our 5748
e@@ 5604
but 5572
d@@ 5506
me 5353
very 5248
just 5247
g@@ 5239
h@@ 5219
out 5155
a@@ 5136
an@@ 5112
en@@ 5074
The 5052
We 5045
m@@ 5029
t@@ 5022
if 4968
But 4945
these 4849
i@@ 4749
up 4709
by 4686
us 4679
know 4613
y@@ 4608
going 4560
them 4547
e 4527
l@@ 4429
w@@ 4419
more 4375
tion 4365
ar@@ 4324
when 4294
de@@ 4226
he 4225
v@@ 4219
ac@@ 4216
had 4207
think 4188
because 4183
st@@ 4169
S@@ 4160
t 4154
ro@@ 4079
con@@ 4061
get 4059
ation 4037
ts 4030
see 4021
how 4016
li@@ 3966
which 3959
un@@ 3951
your 3919
their 3918
who 3912
were 3888
ent 3870
really 3849
ly 3751
r@@ 3737
or@@ 3726
would 3718
here 3631
&apos;ve 3567
time 3545
way 3541
ri@@ 3514
ti@@ 3488
where 3467
ve 3449
You 3424
world 3413
C@@ 3408
&apos;m 3400
o@@ 3367
has 3361
then 3352
th@@ 3335
on@@ 3324
This 3323
al@@ 3311
into 3272
di@@ 3267
don 3226
at@@ 3219
er 3215
ad@@ 3213
n@@ 3202
some 3187
actually 3101
A@@ 3096
ting 2991
years 2985
go 2969
now 2938
things 2933
te 2930
other 2903
able 2885
Now 2872
will 2861
ate 2843
lo@@ 2798
make 2786
They 2776
want 2771
ra@@ 2769
le@@ 2742
ce 2738
u@@ 2735
been 2717
si@@ 2715
es@@ 2689
could 2687
ter@@ 2686
el@@ 2648
M@@ 2616
ds 2592
B@@ 2571
m 2558
ex@@ 2552
ma@@ 2527
o 2507
er@@ 2499
thing 2495
right 2480
said 2479
something 2458
k 2452
for@@ 2445
ec@@ 2437
res@@ 2436
than 2432
as@@ 2420
ity 2416
ch@@ 2413
p 2405
ous 2388
ted 2371
ers 2360
mo@@ 2360
E@@ 2357
d 2349
it@@ 2337
ap@@ 2336
ally 2335
os@@ 2333
dis@@ 2319
am@@ 2317
those 2312
much 2289
P@@ 2286
sp@@ 2281
no 2279
little 2269
T@@ 2266
em@@ 2261
work 2261
back 2245
su@@ 2245
is@@ 2241
sh@@ 2231
se@@ 2222
two 2206
om@@ 2200
D@@ 2199
h 2197
also 2192
first 2183
pro@@ 2179
got 2176
op@@ 2158
say 2152
♫ 2142
le 2134
l 2129
look 2114
ine 2113
That 2107
de 2105
ul@@ 2100
his 2100
co@@ 2088
ci@@ 2084
ar 2080
th 2065
over 2058
In 2052
life 2050
k@@ 2045
What 2036
ated 2025
H@@ 2022
bo@@ 2003
ely 1984
qu@@ 1984
tions 1980
her 1975
take 1968
R@@ 1952
ab@@ 1947
tra@@ 1944
only 1936
many 1936
most 1935
she 1931
ol@@ 1905
lot 1891
O@@ 1889
kind 1885
need 1877
even 1875
day 1868
ur@@ 1863
per@@ 1860
to@@ 1856
new 1833
W@@ 1830
its 1816
est 1814
end 1800
ou@@ 1797
z@@ 1787
la@@ 1769
age 1764
ver@@ 1760
down 1756
around 1754
There 1752
come 1748
ter 1746
vi@@ 1739
bi@@ 1735
ch 1732
use 1722
ot@@ 1718
ons 1714
ks 1711
good 1707
did 1702
car@@ 1698
tri@@ 1673
&apos;ll 1671
us@@ 1670
ved 1669
com@@ 1664
tic 1663
different 1663
il@@ 1657
ag@@ 1653
ent@@ 1652
im@@ 1640
ding 1639
ge 1638
I@@ 1636
par@@ 1633
cre@@ 1633
n 1632
through 1632
et@@ 1630
ut@@ 1629
tive 1627
ant 1623
pa@@ 1623
; 1615
ic 1597
1@@ 1589
G@@ 1586
ating 1585
no@@ 1578
ents 1578
every 1573
i 1571
He 1571
old 1569
gi@@ 1566
be@@ 1563
L@@ 1563
we@@ 1556
me@@ 1548
pl@@ 1548
j@@ 1544
same 1542
ck 1528
being 1519
Well 1518
inter@@ 1515
ence 1506
ph@@ 1505
c 1505
ty 1499
doing 1486
ta@@ 1484
put 1474
sa@@ 1472
ment 1472
any 1462
pres@@ 1456
gh@@ 1439
F@@ 1427
If 1426
te@@ 1424
au@@ 1406
ble 1401
A 1391
cl@@ 1390
red 1387
als 1387
ary 1385
called 1382
ir@@ 1367
ves 1366
king 1365
ying 1365
x@@ 1360
ad 1358
change 1356
g 1355
ep@@ 1353
rec@@ 1349
wor@@ 1349
pre@@ 1343
percent 1337
ever 1337
J@@ 1336
so@@ 1331
three 1331
N@@ 1322
sur@@ 1317
ne@@ 1312
ic@@ 1309
ke 1308
ded 1308
talk 1302
ei@@ 1300
made 1298
&apos;d 1283
der 1277
fa@@ 1272
human 1270
et 1264
well 1261
min@@ 1256
tr@@ 1256
pe@@ 1255
ties 1251
cal 1251
K@@ 1249
ect 1238
body 1237
ali@@ 1232
fact 1230
ist 1226
ance 1224
um@@ 1223
tell 1222
find 1220
let 1218
year 1218
sc@@ 1217
po@@ 1216
why 1210
sol@@ 1208
ations 1203
x 1200
low 1190
en 1183
wi@@ 1181
and@@ 1180
gen@@ 1179
cor@@ 1170
started 1167
idea 1160
own 1156
TED 1155
ver 1154
today 1146
fe@@ 1138
ni@@ 1136
do@@ 1131
gre@@ 1130
comp@@ 1130
didn 1128
am 1124
ze 1123
ters 1117
after 1114
fi@@ 1109
used 1108
man@@ 1106
br@@ 1105
better 1104
should 1103
last 1102
gr@@ 1101
big 1099
great 1099
course 1096
sho@@ 1094
ans 1092
went 1087
hi@@ 1086
id 1083
ha@@ 1081
se 1080
might 1080
ev@@ 1078
ws 1074
gu@@ 1074
place 1073
ago 1069
um 1069
bu@@ 1069
sion 1068
off 1068
les 1068
ving 1067
thought 1061
wing 1059
ther 1052
ms 1051
problem 1049
brain 1045
story 1045
give 1044
before 1044
important 1041
b 1038
ins 1036
ies 1035
ose 1033
never 1032
ru@@ 1028
ors 1023
ck@@ 1023
2@@ 1021
ob@@ 1019
mis@@ 1018
part 1015
Thank 1009
another 1006
ay 1002
him 996
bit 996
still 995
together 995
man 988
tre@@ 988
ice 988
des@@ 986
water 982
ess@@ 980
next 980
few 980
ces 972
ges 971
came 969
start 964
w 959
col@@ 959
found 958
lic@@ 958
rel@@ 954
system 953
does 951
wa@@ 949
gra@@ 947
try 945
show 945
technology 944
less 938
ge@@ 937
again 933
exp@@ 932
tu@@ 928
tly 925
sk@@ 923
fac@@ 914
ry 911
ory 911
3@@ 908
cy 908
tional 908
each 901
How 901
eff@@ 900
between 900
comes 899
&apos; 895
When 893
poli@@ 893
ps 892
too 892
any@@ 891
ure 888
pri@@ 888
mean 887
ill@@ 886
under@@ 880
ing@@ 880
mi@@ 878
Th@@ 877
produc@@ 877
looking 873
he@@ 872
question 869
ig@@ 866
ght 865
gs 864
long 859
data 858
ga@@ 858
light 857
chan@@ 857
gener@@ 851
bre@@ 851
ort 850
ten@@ 848
cap@@ 847
ning 846
ess 844
medi@@ 842
ates 840
el 838
love 838
Y@@ 837
ings 836
inv@@ 835
point 832
Talk 831
example 830
f 829
sort 824
.@@ 822
women 822
mon@@ 820
real 817
oc@@ 817
live 816
done 816
wanted 816
doesn 813
10 810
the@@ 807
working 805
plan@@ 805
ach 805
ass@@ 804
Because 804
children 803
trying 800
mar@@ 799
str@@ 798
spe@@ 797
school 796
tical 796
pi@@ 795
whole 794
away 791
da@@ 785
cra@@ 781
uni@@ 779
ked 778
e-@@ 777
ness 777
always 776
believe 776
face 775
may 774
Subtitles 772
Transcript 772
ood 769
develop@@ 766
understand 766
help 765
call 764
power 763
st 762
pr@@ 762
app@@ 758
wh@@ 757
fin@@ 755
19@@ 752
act 750
using 746
ard 746
person 744
des 741
form 740
design 739
ask 737
ass 736
star@@ 733
million 733
cur@@ 730
,000 728
feel 727
ger 725
coming 725
ast 724
dri@@ 724
times 723
der@@ 722
four 720
kids 720
city 719
! 718
trans@@ 716
become 713
sta@@ 713
means 711
supp@@ 709
play 709
off@@ 708
thinking 708
go@@ 707
ging 705
ase 705
took 699
our@@ 698
room 697
ber@@ 696
connec@@ 696
country 693
sub@@ 692
gl@@ 691
ff@@ 690
lea@@ 689
create 689
ear@@ 688
bl@@ 688
sy@@ 687
everything 685
7@@ 685
space 684
information 682
number 682
side 681
five 681
wn 680
na@@ 679
sense 677
du@@ 676
cul@@ 675
future 674
sec@@ 673
men 673
5@@ 672
tic@@ 670
ones 668
dec@@ 668
her@@ 668
maybe 665
il 663
ets 660
ima@@ 660
del@@ 660
quite 660
V@@ 659
wat@@ 656
making 656
One 654
ell@@ 654
tor 651
money 651
ther@@ 650
ach@@ 648
tru@@ 645
possible 645
ak 644
pos@@ 644
ful 643
prot@@ 643
ement 641
Here 639
ow 637
cli@@ 637
says 637
ship 637
getting 636
small 636
oo@@ 636
ger@@ 636
food 636
happened 635
She 634
My 634
best 632
book 631
enough 631
ability 631
por@@ 628
building 627
care 627
fl@@ 626
fol@@ 626
ical 625
cu@@ 625
social 624
ently 624
cri@@ 622
sit@@ 622
pp@@ 621
stuff 620
interesting 619
second 619
mat@@ 619
left 618
ven 618
ight 617
respon@@ 617
ome 615
vis@@ 615
tur@@ 615
These 613
4@@ 613
ish 612
ari@@ 611
In@@ 611
ici@@ 611
und@@ 610
lin@@ 609
ways 608
probably 608
tal@@ 607
ris@@ 607
dge 607
ste@@ 606
cho@@ 605
Let 605
hel@@ 603
tion@@ 603
ie 603
without 602
lis@@ 602
An@@ 602
assi@@ 599
ned 599
ward 597
lu@@ 597
energy 596
sig@@ 596
den@@ 595
ser@@ 595
home 594
bro@@ 592
top 591
across 590
war@@ 588
build 587
desig@@ 587
sure 586
wed 586
anything 586
Why 583
char@@ 583
art 583
makes 582
science 582
talking 580
ost 580
pretty 579
ell 579
ative 579
all@@ 576
har@@ 576
scienti@@ 574
lives 574
blo@@ 574
ast@@ 573
goes 573
case 572
half 572
set 571
vo@@ 571
ists 571
wee@@ 571
happen 568
ately 568
sen@@ 566
jo@@ 565
speci@@ 565
countries 565
hard 565
while 564
works 563
mem@@ 563
saw 562
20 561
ef@@ 560
told 560
ously 559
No 559
5 559
eng@@ 559
experience 558
cer@@ 558
move 557
ality 557
tro@@ 557
dra@@ 556
ital 555
such 554
seen 554
Africa 553
land 553
est@@ 552
happens 551
wri@@ 549
moment 549
else 548
bra@@ 546
simple 546
disco@@ 545
imp@@ 545
wis@@ 545
days 544
ak@@ 542
dollars 540
ia 539
ders 537
For 537
hand 536
learn 535
ise 533
asked 533
bot@@ 533
turn 532
fil@@ 531
mul@@ 531
ys 530
ie@@ 528
cent@@ 527
family 526
od 526
den 525
50 525
living 525
tics 524
ision 524
No@@ 523
picture 523
mil@@ 522
As 522
bas@@ 522
Mar@@ 521
ep 520
high 520
stre@@ 519
tem@@ 519
bad 518
zed 517
problems 516
though 516
tim@@ 514
mind 512
posi@@ 512
gro@@ 511
ran@@ 511
tin@@ 510
’ 508
ture 508
typ@@ 508
cks 507
pati@@ 507
fra@@ 506
exc@@ 506
ori@@ 506
process 504
son 504
car 504
mit@@ 504
8 504
contin@@ 504
tell@@ 503
6@@ 500
ics 500
All 499
econom@@ 499
sti@@ 499
health 498
line 498
gest 497
having 497
reason 497
looks 496
up@@ 496
pat@@ 496
ist@@ 496
young 496
9@@ 495
both 495
ideas 495
answer 495
shar@@ 495
4 494
heard 493
suc@@ 493
ns 492
ols 491
computer 491
ments 491
later 488
stra@@ 488
Ma@@ 487
business 487
yet 486
far 485
dic@@ 484
tures 483
wrong 483
flo@@ 482
coun@@ 482
ined 481
ub@@ 481
single 481
order 480
ue 480
per 480
once 480
person@@ 480
over@@ 479
ven@@ 479
basically 479
dies 479
gir@@ 477
aff@@ 476
mov@@ 476
ual 476
tiv@@ 476
words 474
ore 474
inside 474
ish@@ 473
progra@@ 473
mate 473
fun@@ 472
Earth 472
ought 472
saying 471
shi@@ 471
matter 471
U@@ 471
almost 471
20@@ 470
issu@@ 470
New 470
keep 469
8@@ 468
eas@@ 467
cells 467
iz@@ 466
incredi@@ 465
within 465
doc@@ 465
whether 465
vel@@ 464
direc@@ 464
wal@@ 463
guy 463
ack 463
phot@@ 463
history 462
already 462
acc@@ 462
teach@@ 462
someone 462
bers 462
0s 462
pic@@ 461
oper@@ 460
bor@@ 459
ress 459
hund@@ 458
ences 458
bring 458
fe 457
project 457
looked 456
global 456
tis@@ 456
isi@@ 456
tici@@ 455
ism 455
true 454
mm@@ 454
high@@ 454
3 453
ir 453
ber 453
ster 453
Al@@ 452
piece 452
enti@@ 452
billion 451
mor@@ 451
planet 451
ke@@ 450
lar@@ 450
prof@@ 450
word 450
cess 450
eh@@ 450
mother 450
public 450
community 449
2 449
nam@@ 447
sts 447
fic@@ 447
ner 447
pris@@ 447
dr@@ 446
... 446
S 446
fic 445
nature 445
big@@ 445
built 445
imagine 445
music 445
vice 444
200@@ 443
vers@@ 443
r 442
ced 442
read 442
nothing 442
isn 441
sli@@ 441
often 441
six 440
bri@@ 440
United 439
ho@@ 438
os 437
tice 437
St@@ 436
cancer 436
myself 435
amazing 435
months 435
ology 434
child 433
ale 433
ey 432
ghts 432
ton 432
individu@@ 431
sm@@ 431
struc@@ 430
dar@@ 430
beautiful 430
wer 430
fre@@ 429
challen@@ 429
mer 429
places 428
gets 428
led 428
fer@@ 427
af@@ 427
Internet 426
ft 425
om 425
duc@@ 425
language 425
taking 424
friends 424
air 423
remember 423
ese 423
until 423
&#93; 422
ched 421
bly 421
&#91; 421
30 420
everybody 420
clear 420
ected 420
hy@@ 419
val@@ 419
ens 418
sing 417
ground 417
ining 417
open 416
ank 416
out@@ 416
study 416
appro@@ 416
dro@@ 415
ut 415
stories 415
jects 414
6 413
av@@ 412
organiz@@ 412
ular 412
ape 412
research 412
Li@@ 411
net@@ 411
ects 409
cess@@ 409
hope 409
ction 409
ur 409
nor@@ 408
completely 408
level 408
incre@@ 407
view 407
couple 406
ourselves 406
ching 405
ill 405
night 405
re 405
government 405
takes 404
pla@@ 404
turns 404
education 403
Wh@@ 403
head 403
tual 402
model 402
culture 402
India 400
standing 400
video 400
ually 400
ous@@ 398
mark@@ 398
universe 398
run 398
ses 398
iting 398
animals 397
control 397
exactly 397
stop 397
became 397
7 397
students 396
must 395
pen@@ 395
species 395
phone 395
9 395
job 395
hear 395
qui@@ 394
vir@@ 394
society 393
lec@@ 392
under 392
ject 392
bab@@ 392
decided 392
d-@@ 391
woman 391
knew 391
OK 390
allo@@ 389
em 389
States 389
men@@ 389
experim@@ 389
ner@@ 387
ands 387
ically 387
since 387
vered 387
house 387
kno@@ 386
ash@@ 386
learned 386
against 386
ire 385
group 385
pt 384
fish 384
dre@@ 384
spec@@ 383
shows 383
America 383
mus@@ 383
form@@ 383
mos@@ 383
collec@@ 382
fo@@ 381
hor@@ 381
thousands 381
happening 380
century 380
front 380
meas@@ 379
kinds 378
100 377
heart 376
cept 376
ples 376
worked 376
dru@@ 376
large 376
game 375
environment 375
war 375
ten 374
fu@@ 374
ented 374
created 373
questions 373
wasn 373
bur@@ 373
arti@@ 372
dence 372
stri@@ 372
ome@@ 371
state 371
expla@@ 371
clos@@ 371
seri@@ 371
stor@@ 371
ple@@ 371
mp@@ 370
hours 370
bar@@ 369
fir@@ 369
unds 369
appe@@ 369
sometimes 369
God 368
mic@@ 368
opport@@ 368
American 368
themselves 365
happy 365
ll@@ 363
somebody 363
share 363
sor@@ 363
dan@@ 363
sed 362
sound 362
nee@@ 362
Ch@@ 361
ines 361
past 361
name 360
tors 360
huge 360
outh 360
thre@@ 359
arly 358
un 358
pur@@ 358
ouldn 358
1 357
seem@@ 357
ots 357
turned 356
minutes 356
Engl@@ 356
innov@@ 356
fort@@ 356
dig@@ 355
structure 355
usi@@ 355
relation@@ 355
Is@@ 355
end@@ 355
cr@@ 355
ah@@ 354
Ar@@ 354
systems 354
ron@@ 353
Then 353
itself 353
others 352
dep@@ 352
ind 351
tom@@ 351
ited 351
ls 350
0,000 350
ful@@ 349
mag@@ 349
figure 349
stu@@ 349
everyone 348
ju@@ 348
ich 348
ath 347
foc@@ 347
wards 347
oll@@ 347
rather 347
elec@@ 347
cell 347
perf@@ 347
early 346
dem@@ 346
Re@@ 346
ator 346
cle 345
thy 345
inst@@ 345
Okay 344
along 344
ages 344
00 344
taken 344
audi@@ 343
row 343
liter@@ 343
u 343
ologi@@ 343
Af@@ 343
company 342
difference 342
y-@@ 342
disease 342
ust 342
play@@ 342
won 342
stitu@@ 341
wei@@ 341
least 341
ution 341
sum@@ 340
couldn 340
market 340
self-@@ 340
vol@@ 340
els 339
0@@ 339
moving 339
ering 339
learning 339
V 339
cy@@ 338
national 338
tle 338
based 338
viol@@ 338
can@@ 338
ong 337
particular 337
natural 337
tically 337
news 337
instead 337
D 337
t-@@ 336
lots 336
ult 336
che@@ 335
pul@@ 335
guys 335
close 335
unch 334
scale 333
bed 333
belie@@ 333
tain 333
air@@ 333
ats 332
amp@@ 332
gave 332
interes@@ 332
Oh 332
ues 331
ben@@ 331
test 331
activ@@ 330
expl@@ 330
ules 329
bility 328
dy 328
father 327
ged 327
needs 327
beg@@ 326
chem@@ 326
key 326
far@@ 326
heal@@ 326
outside 326
dent 326
Le@@ 325
behind 325
tain@@ 325
oil 324
action 324
reali@@ 324
ce@@ 324
comm@@ 323
free 323
num@@ 323
prin@@ 323
jour@@ 323
ordin@@ 322
ingly 322
physi@@ 322
amoun@@ 321
invol@@ 321
flu@@ 321
partic@@ 321
engine@@ 321
mes@@ 321
ases 320
hands 320
on-@@ 320
self 320
van@@ 320
ling 319
— 319
pu@@ 319
China 319
Con@@ 319
dom 319
difficult 318
cir@@ 318
third 318
machine 318
ve@@ 318
tel@@ 317
black 317
changed 317
Do 317
15 317
yourself 317
met@@ 317
inn@@ 317
int 316
reg@@ 316
ough@@ 316
ute 316
yp@@ 315
economic 315
certain 315
cost 315
win@@ 315
terms 314
olog@@ 314
vari@@ 314
cities 314
prac@@ 314
ct 313
mer@@ 312
beginning 312
powerful 311
0 311
At 310
entire 310
leave 310
impro@@ 310
feel@@ 310
cked 309
igh@@ 309
ker 308
eyes 308
known 308
ource 307
perhaps 307
vor@@ 307
squ@@ 307
conf@@ 306
population 306
ite 306
cal@@ 306
lit@@ 306
seven 306
began 306
evi@@ 305
given 305
nu@@ 305
archit@@ 304
pot@@ 304
rest 304
predic@@ 304
uri@@ 304
parents 304
coll@@ 304
realized 303
tern 303
cle@@ 303
inc@@ 303
cou@@ 302
att@@ 302
atten@@ 302
ey@@ 302
area 302
kill@@ 302
dly 301
equ@@ 301
uses 301
ature 301
maj@@ 301
during 301
electri@@ 301
Nor@@ 301
communic@@ 300
table 300
friend 300
To 300
sions 299
bir@@ 299
unity 299
mental 299
chi@@ 299
cop@@ 298
lan@@ 298
People 298
full 298
descri@@ 297
wonderful 297
companies 297
behavior 297
ace 297
simply 296
ches 296
parts 296
deal 296
York 296
obvi@@ 296
range 296
what@@ 296
cial 296
milli@@ 295
10@@ 295
tot@@ 295
ros@@ 295
emp@@ 294
walk 294
inclu@@ 294
sequ@@ 294
aus@@ 294
comple@@ 294
physic@@ 294
U.S. 293
cannot 293
back@@ 292
ily 292
provi@@ 292
technologi@@ 292
absol@@ 292
size 292
conver@@ 292
easy 291
alis@@ 291
eri@@ 291
ord 291
lik@@ 291
anti@@ 291
cing 291
famili@@ 290
Or 290
ink 290
finally 290
♪ 290
condi@@ 289
humans 289
quick@@ 289
longer 289
ini@@ 288
eful 288
demo@@ 288
poor 288
cos@@ 288
pop@@ 288
reality 288
ye@@ 287
ads 287
local 287
ocean 287
growth 286
gone 286
ograph@@ 286
field 286
sion@@ 285
emo@@ 285
son@@ 284
bel@@ 284
poin@@ 284
survi@@ 284
rate 284
let@@ 284
paper 283
extra@@ 283
hon@@ 283
value 283
radi@@ 283
DNA 283
common 283
felt 283
ners 283
conc@@ 283
part@@ 282
repres@@ 282
cont@@ 282
ograp@@ 282
team 281
death 281
ater 280
books 280
ults 280
abor@@ 279
tom 279
tes@@ 279
ames 279
osp@@ 279
evol@@ 279
Gre@@ 279
animal 279
ail@@ 278
wit@@ 278
Just 278
media 278
nei@@ 278
blu@@ 278
grow 278
force 277
mol@@ 277
know@@ 277
gen 277
middle 277
rep@@ 276
site 276
born 276
transp@@ 276
run@@ 276
leg@@ 276
ars 276
sel@@ 275
seeing 275
ective 275
identi@@ 275
tan@@ 275
feet 275
possi@@ 275
complex 275
hol@@ 275
eu@@ 274
stud@@ 274
morning 274
year-@@ 274
defin@@ 274
recogni@@ 274
regi@@ 274
cking 273
ick 273
ond 272
sci@@ 272
ca@@ 272
some@@ 272
ole 271
Mo@@ 271
Se@@ 271
fur@@ 271
ny 271
que 270
are@@ 270
fly 270
ney 269
extre@@ 269
aver@@ 269
ash 269
Au@@ 269
rop@@ 268
reas@@ 268
wan@@ 268
bac@@ 268
text 267
wers 267
atur@@ 266
ges@@ 266
smar@@ 265
pan@@ 263
super@@ 263
Ha@@ 262
ot 262
kers 262
organ@@ 261
every@@ 261
Par@@ 261
und 261
ause 261
fas@@ 260
hand@@ 260
neur@@ 259
ment@@ 259
aly@@ 258
essen@@ 258
ush 257
asi@@ 257
ils 257
whi@@ 257
ban@@ 256
tradi@@ 256
ah 255
orig@@ 254
perc@@ 253
ack@@ 253
ol 253
rap@@ 252
hab@@ 252
40 252
Bri@@ 251
my@@ 251
religi@@ 251
M 251
T 251
tation 251
Na@@ 250
og@@ 250
zing 250
To@@ 250
tau@@ 249
eting 249
ich@@ 249
die 249
ox@@ 249
C 248
Di@@ 248
ung@@ 247
land@@ 247
inten@@ 247
Yeah 246
happ@@ 246
sage 246
iness 246
ier 245
ths 245
op 244
fli@@ 244
soci@@ 244
dom@@ 243
pass@@ 241
Europ@@ 241
z 240
ins@@ 240
ams 240
techni@@ 239
Ph@@ 238
ential 237
bal@@ 237
ele@@ 237
met 237
passi@@ 237
ki@@ 236
wer@@ 236
normal 236
12 236
stand@@ 236
compu@@ 236
los@@ 236
lau@@ 236
ere 236
thers 236
dy@@ 235
Z@@ 235
wo@@ 235
produ@@ 235
nec@@ 234
ll 234
online 234
ern 234
ral 233
sil@@ 233
nal 232
industr@@ 232
ativ@@ 232
vie@@ 231
tor@@ 230
differ@@ 230
very@@ 230
human@@ 230
gene@@ 229
uation 229
ball 229
material 229
stand 228
fig@@ 228
World 228
scho@@ 228
fundament@@ 227
Su@@ 227
priv@@ 227
P 227
Ro@@ 226
spre@@ 226
serv@@ 226
Ne@@ 226
ed@@ 225
buil@@ 225
contro@@ 225
bus@@ 225
ton@@ 224
imag@@ 224
60 224
fri@@ 223
lear@@ 223
CA 222
r. 222
ste 222
spi@@ 221
win 221
rat@@ 221
da 221
ide@@ 220
oot 220
evolution 219
Ge@@ 219
gar@@ 218
Pro@@ 217
mathema@@ 217
hum@@ 217
eter 217
ple 217
hear@@ 217
cool 216
ensi@@ 216
Fran@@ 216
power@@ 215
illi@@ 214
dern 213
fast 213
B 212
set@@ 212
Be@@ 212
G 212
ope 211
intelli@@ 211
ein 211
ument 211
top@@ 211
lon@@ 211
ree 210
opp@@ 210
amp 209
ans@@ 209
ybe 209
lege 208
ster@@ 208
ends 207
Sh@@ 207
mechan@@ 207
Car@@ 207
199@@ 206
secon@@ 205
25 205
Chin@@ 204
dimen@@ 203
grou@@ 203
lli@@ 202
hr@@ 202
Mus@@ 201
psych@@ 201
ety 201
11 200
ftware 200
O 200
Fir@@ 200
Sp@@ 200
ware 200
bot 200
ath@@ 200
ken 199
im 199
materi@@ 199
bat@@ 199
stat@@ 198
Mi@@ 196
mit 196
oun@@ 195
mu@@ 195
ough 195
ade 195
Google 194
fall 194
dings 194
environ@@ 194
fore 194
,@@ 194
ren@@ 193
obs 192
liz@@ 191
govern@@ 191
Bi@@ 191
Ste@@ 190
thr@@ 190
deci@@ 190
bin@@ 189
Afri@@ 189
vil@@ 189
ould 188
ame 188
hig@@ 188
experi@@ 187
ang@@ 187
sex@@ 187
tar@@ 187
call@@ 187
mal@@ 187
De@@ 186
zer@@ 186
Chr@@ 186
ati@@ 186
Wi@@ 185
eg@@ 185
rong 185
devel@@ 184
aren 184
stru@@ 184
Wit@@ 184
lage 184
Har@@ 184
ma 182
gri@@ 181
bs 181
okay 180
80 180
hal@@ 179
oph@@ 179
amera 178
Com@@ 177
thous@@ 177
ouse 177
Bu@@ 177
alls 177
ready 176
fle@@ 176
plac@@ 174
exis@@ 174
ateg@@ 174
For@@ 173
volution 173
fantas@@ 172
fer 172
mach@@ 172
R 172
Un@@ 172
/ 171
som@@ 171
enter 171
ales 171
whe@@ 170
tually 170
finan@@ 170
Jap@@ 169
vel 168
Ta@@ 168
ump@@ 167
alax@@ 167
lity 167
agn@@ 166
will@@ 166
lose 166
On@@ 166
He@@ 166
piec@@ 166
So@@ 165
Chris 165
kl@@ 165
Ab@@ 164
TED@@ 163
L 163
istan 163
HI@@ 163
Do@@ 162
import@@ 162
La@@ 161
wonder@@ 161
Bo@@ 160
Ger@@ 160
ert 160
stem 160
Ho@@ 159
exper@@ 159
ok@@ 158
read@@ 158
aller 158
rise 158
inspi@@ 158
hat@@ 157
dd@@ 157
John 157
ane 157
18@@ 157
ang 156
Ex@@ 156
econ@@ 155
ition 155
David 154
0-@@ 154
Ver@@ 153
studi@@ 153
Col@@ 152
chil@@ 152
a-@@ 152
o-@@ 151
abi@@ 151
thin@@ 151
educ@@ 151
En@@ 151
gh 150
aps 150
Po@@ 150
mal 150
sch@@ 149
dau@@ 149
U.@@ 149
loo@@ 149
bein@@ 148
kes 148
Ju@@ 146
tisti@@ 146
cell@@ 146
Ri@@ 146
gent@@ 146
H 146
Go@@ 145
Lon@@ 145
ritten 145
Bro@@ 145
Si@@ 145
zi@@ 144
ler 143
not@@ 143
ural 143
inves@@ 143
verse 141
Sch@@ 141
Mon@@ 141
Indi@@ 141
We@@ 139
200 139
Per@@ 139
indu@@ 138
Je@@ 138
Americ@@ 138
ird 136
eck 136
yo@@ 136
bes@@ 135
Co@@ 135
Univers@@ 135
tho@@ 133
net 133
500 133
sing@@ 133
rom 133
ollar 132
alle@@ 132
enor@@ 131
ble@@ 131
tran@@ 131
wel@@ 131
ier@@ 131
zen 131
hist@@ 129
beau@@ 129
K 129
dest 128
hei@@ 127
wo 127
E 126
pra@@ 126
hu@@ 126
ool 125
lob@@ 125
dat@@ 125
unter@@ 124
ama 124
resear@@ 123
Sta@@ 122
f-@@ 122
Wes@@ 122
beh@@ 122
gel@@ 122
Char@@ 120
Ra@@ 120
$ 119
Ber@@ 119
ze@@ 118
s-@@ 118
Man 118
Eu@@ 118
behavi@@ 118
Bar@@ 115
wir@@ 115
Br@@ 115
F 115
ene 114
X@@ 114
fron@@ 114
ury 113
At@@ 113
neu@@ 113
cher 112
Inter@@ 112
ani@@ 112
spr@@ 112
Me@@ 112
rie@@ 111
stead 111
Te@@ 111
&apos;@@ 110
rit@@ 110
kin@@ 110
ine@@ 109
ddle 108
ax@@ 108
Gi@@ 108
Fr@@ 108
Dar@@ 106
Ob@@ 106
inger 105
Qu@@ 105
Medi@@ 105
bit@@ 105
ein@@ 105
glob@@ 105
ne 104
thou@@ 104
Bil@@ 104
oce@@ 103
sto@@ 102
aper 102
je@@ 101
zes 100
en-@@ 100
fund@@ 100
ld 99
ulation 99
ff 99
intel@@ 99
uns 99
ours 98
formation 98
Kor@@ 98
Lo@@ 97
organis@@ 96
bt 96
Sy@@ 95
Man@@ 95
Pri@@ 95
tens 95
dn 95
Gr@@ 94
Bas@@ 94
ule 94
q 94
Ti@@ 94
Lu@@ 93
ogni@@ 93
ret@@ 93
umin@@ 93
sam@@ 92
tes 92
cour@@ 92
ama@@ 91
ek@@ 91
ts@@ 90
bed@@ 89
amer@@ 89
zo@@ 89
iel@@ 89
ques@@ 88
ord@@ 88
nat@@ 88
nov@@ 88
- 88
ager 87
bar 87
cer 87
imm@@ 87
Res@@ 87
Fin@@ 87
vor 86
cken 86
tin 86
Vi@@ 86
Min@@ 85
Sa@@ 84
fan@@ 83
Joh@@ 83
pon@@ 83
Mal@@ 82
vide@@ 82
Nat@@ 82
fal@@ 82
Lin@@ 82
Pe@@ 82
tig@@ 81
erg@@ 81
Ein@@ 80
Ir@@ 80
Uni@@ 79
unk@@ 79
get@@ 79
Dan@@ 79
ung 78
Q@@ 78
Or@@ 77
bel 77
lag 76
abor 76
fes@@ 76
Fo@@ 75
W 75
Gen@@ 75
langu@@ 75
simp@@ 74
versu@@ 74
ka 74
member 74
lt 73
Mor@@ 72
omen 72
ease 72
Am@@ 72
wes@@ 72
Wor@@ 72
eins 71
N 70
Wal@@ 70
ums 70
Gra@@ 69
chen 69
iet 69
Sin@@ 69
ft@@ 69
avi@@ 69
ander@@ 69
v 68
ross 68
dur@@ 68
oh@@ 68
ild 68
ample 68
Mu@@ 68
000 67
ken@@ 67
tas@@ 66
forma@@ 66
El@@ 65
chnolog@@ 64
verb@@ 63
Dis@@ 62
aten 62
iden@@ 62
dam@@ 61
alt 61
hin@@ 60
ca 60
gan@@ 60
Fl@@ 60
gar 60
rank@@ 60
&@@ 60
ound 59
thei@@ 59
Bl@@ 59
uss 59
X 59
fort 59
Also 59
eing 59
Pl@@ 59
scri@@ 59
bil@@ 58
che 58
Mis@@ 58
nation@@ 58
Mat@@ 58
Gener@@ 58
Sol@@ 57
falls 57
haps 57
Tra@@ 57
ok 57
ami@@ 57
Dem@@ 56
Fre@@ 56
was@@ 56
Stu@@ 56
err@@ 55
Pr@@ 55
Her@@ 55
Den@@ 55
fr@@ 54
elt 54
Vir@@ 53
ob 53
Sk@@ 53
ander 53
Gl@@ 53
len@@ 53
sin@@ 53
tit@@ 53
tries 52
amm@@ 51
J 51
-S@@ 51
Rob@@ 50
ab 50
ysi@@ 50
utes 50
fest@@ 50
Bab@@ 49
script 49
ogra@@ 48
ug 48
ern@@ 48
diff@@ 48
q@@ 47
Kar@@ 47
ett@@ 47
spra@@ 47
wa 46
War@@ 46
stem@@ 46
tz@@ 46
Gro@@ 46
diffic@@ 45
trau@@ 45
U 45
Ru@@ 45
enz@@ 45
Ear@@ 44
é@@ 44
probab@@ 44
oft 43
uns@@ 43
Des@@ 43
Tr@@ 43
indi@@ 42
with@@ 42
sel 42
hil@@ 42
Y 42
utter 42
Ni@@ 41
dren 41
ih@@ 41
eller 40
US@@ 39
genom@@ 39
raft 39
anz@@ 39
commun@@ 39
Bei@@ 39
Sti@@ 39
wand@@ 39
Art 38
Was 38
lung 38
anim@@ 37
Dur@@ 37
Yor@@ 37
gut 37
ation@@ 36
gst 36
Bet@@ 35
Sel@@ 35
til 35
bis@@ 35
é 35
“ 35
dig 35
vern@@ 35
Organ@@ 35
quot@@ 34
” 34
dung 34
iel 33
assen@@ 33
sen 33
au 33
Tel@@ 33
Far@@ 33
Tran@@ 32
ser 32
len 32
ou 32
pret@@ 32
sei@@ 32
Design 32
lei@@ 32
ren 31
Video 31
alk 31
cher@@ 30
them@@ 30
allen 30
Q 30
gang 30
fut@@ 30
ann 30
ergi@@ 30
alien 30
gel 30
The@@ 29
Spe@@ 29
Str@@ 29
+ 28
Kin@@ 28
Ele@@ 27
Dat@@ 27
hau@@ 27
Ye@@ 26
mm 26
Es@@ 26
isten 26
technolog@@ 26
S. 26
rei@@ 25
ik@@ 25
gens 25
Plan@@ 25
ehr@@ 25
beauti@@ 24
Er@@ 24
Z 24
bet@@ 23
System 23
del 23
zu@@ 23
year@@ 23
proble@@ 23
wen@@ 23
Hin@@ 22
du 22
Kos@@ 22
Ei@@ 22
% 22
Bec@@ 22
bin 22
port@@ 22
zin@@ 22
ig 21
titles 21
tel 21
nis@@ 21
ler@@ 21
Desig@@ 21
Beh@@ 21
Ok@@ 21
gether 21
Mit@@ 20
Son@@ 20
nie 20
Poli@@ 20
nis 20
Kur@@ 20
Wel@@ 20
Kon@@ 20
amen 19
boo@@ 19
enn 19
Publi@@ 19
viron@@ 19
Archit@@ 19
beginn@@ 19
hat 19
Neu@@ 19
Fol@@ 19
ko@@ 19
publi@@ 18
Kr@@ 18
ja 18
Wo@@ 18
í@@ 18
onder@@ 18
Pati@@ 17
chn@@ 17
grow@@ 17
Ur@@ 17
sych@@ 17
Goog@@ 16
Aut@@ 16
TE@@ 16
nd 16
actly 16
bec@@ 16
kan@@ 16
thema@@ 16
das 16
USA 16
los 16
aus 16
gem@@ 16
selves 16
ften 16
unter 15
stell@@ 15
best@@ 15
Sub@@ 15
Wis@@ 15
Hei@@ 15
elle 15
bare 14
Stra@@ 14
á@@ 14
ç@@ 14
energ@@ 14
Studi@@ 14
gab@@ 13
Ide@@ 13
system@@ 13
aut 13
lie@@ 13
Milli@@ 13
iger 13
Tat@@ 12
Kl@@ 12
aga@@ 12
Progra@@ 12
Lei@@ 12
Kap@@ 12
sten 12
olo@@ 12
# 12
agi@@ 12
Men@@ 12
eld 12
Pap@@ 12
inner@@ 12
… 12
kr@@ 12
sch 11
plex@@ 11
Rei@@ 11
ween 11
atz 11
anders 11
bli@@ 11
apos@@ 11
@ 11
Wei@@ 10
esn 10
Got@@ 10
wom@@ 10
weil 10
wick@@ 10
Aus@@ 10
lich@@ 10
Fra@@ 10
Fil@@ 9
nt 9
amil@@ 9
von 9
= 9
hen 9
– 9
Compu@@ 9
igi@@ 8
bald 8
Sit@@ 8
lus@@ 8
lang 8
è@@ 8
Experim@@ 8
Mann 8
Um 8
Flu@@ 8
Kan@@ 8
Da 8
ã@@ 8
pro 8
bst@@ 8
erz@@ 8
Fahr@@ 8
heit 8
kon@@ 8
Fall 8
asse 8
chs 8
eit 8
twor@@ 7
chnologi@@ 7
sche 7
mei@@ 7
ende 7
beit 7
allen@@ 7
eine 7
ople 7
ament@@ 7
Mik@@ 7
illion 7
wollen 7
Hand@@ 7
Ak@@ 7
Computer 7
unge 7
Schul@@ 7
inst 7
gend 7
á 7
ei 6
Kind 6
Form 6
liche 6
Film 6
ó@@ 6
dies@@ 6
Land 6
ben 6
eren 6
avid 6
mus 6
Land@@ 6
dem 6
Din@@ 6
Exper@@ 6
your@@ 5
Proz@@ 5
pf@@ 5
frei@@ 5
tet 5
betra@@ 5
enz 5
lich 5
bau@@ 5
Sek@@ 5
j 5
compan@@ 5
letely 5
Es 5
seh@@ 5
Kre@@ 5
zur@@ 5
Lie@@ 5
DN@@ 4
ñ@@ 4
è 4
orie 4
etz@@ 4
Them@@ 4
lle 4
Wer@@ 4
Spiel@@ 4
hier 4
utz@@ 4
^ 4
tige 4
schwi@@ 4
ischer 4
ente 4
ats@@ 4
Hand 4
ehr 4
Rau@@ 4
verst@@ 4
‘ 4
Kol@@ 4
chit@@ 4
zent@@ 4
geh@@ 4
bis 4
fen 4
funk@@ 4
dass 4
sie 4
einer 4
zei@@ 3
kos@@ 3
immer 3
mir 3
isch 3
aber 3
cke 3
cht@@ 3
Materi@@ 3
sein 3
Mod@@ 3
zu 3
assen 3
Um@@ 3
mitt@@ 3
gend@@ 3
oren 3
Zu@@ 3
Problem 3
muni@@ 3
ö@@ 3
Techni@@ 3
gs@@ 3
Bes@@ 3
Sich@@ 3
Kun@@ 3
cht 3
oder 3
Nach@@ 3
à 3
Auto 2
Geh@@ 2
je 2
schle@@ 2
gung 2
ø@@ 2
â 2
 2
 2
) 2
ó 2
liches 2
bei@@ 2
für 2
Organis@@ 2
vidu@@ 2
hin 2
Gegen@@ 2
ange@@ 2
́ 2
Wir@@ 2
í 2
uten 2
ollars 2
besser 2
Ster@@ 2
happen@@ 2
tung 2
essen 2
leb@@ 2
ê@@ 2
Zah@@ 2
tete 2
Dollar 2
dir 2
nach@@ 2
Ober@@ 2
Regi@@ 2
ü@@ 2
ffen 2
Zeit@@ 2
Mein@@ 2
Person 2
Spra@@ 2
ë 2
aum 2
tei@@ 2
jen@@ 2
nun 2
Sei@@ 2
² 2
Á@@ 2
Das 2
ä@@ 2
ries@@ 2
Stim@@ 2
ù 1
Du 1
einf@@ 1
esen 1
kom@@ 1
ë@@ 1
Å@@ 1
Frei@@ 1
igen 1
det 1
Produ@@ 1
wie 1
zt 1
Idee 1
Mein 1
asch@@ 1
Moment 1
gab 1
Ich 1
habe 1
genug 1
richt 1
Č@@ 1
ameri@@ 1
verk@@ 1
onen 1
schi@@ 1
lang@@ 1
hr 1
ï@@ 1
Kul@@ 1
Vide@@ 1
verr@@ 1
eigen@@ 1
doch 1
.000 1
Amer@@ 1
Geb@@ 1
º@@ 1
erst@@ 1
zah@@ 1
auf@@ 1
chti@@ 1
Kop@@ 1
Tag 1
geb@@ 1
ahr 1
öl@@ 1
( 1
alles 1
Leu@@ 1
utzen 1
iele 1
ī@@ 1
noch 1
√ 1
± 1
nen@@ 1
sei 1
nah@@ 1
scha@@ 1
bede@@ 1
blem 1
errei@@ 1
über@@ 1
Mö@@ 1
ù@@ 1
ć 1
ör@@ 1
ige 1
€ 1
tik@@ 1
Zei@@ 1
Gem@@ 1
.. 1
Bau@@ 1
viel@@ 1
aup@@ 1
Ç@@ 1
Proble@@ 1
bei 1
sam 1
ā@@ 1
Ja 1
fft 1
É@@ 1
送 1
你 1
葱 1
ös@@ 1
ische 1
mt 1
Schl@@ 1
